[PAD]
[unused1]
[unused2]
[unused3]
[unused4]
[unused5]
[unused6]
[unused7]
[unused8]
[unused9]
[unused10]
[unused11]
[unused12]
[unused13]
[unused14]
[unused15]
[unused16]
[unused17]
[unused18]
[unused19]
[unused20]
[unused21]
[unused22]
[unused23]
[unused24]
[unused25]
[unused26]
[unused27]
[unused28]
[unused29]
[unused30]
[unused31]
[unused32]
[unused33]
[unused34]
[unused35]
[unused36]
[unused37]
[unused38]
[unused39]
[unused40]
[unused41]
[unused42]
[unused43]
[unused44]
[unused45]
[unused46]
[unused47]
[unused48]
[unused49]
[unused50]
[unused51]
[unused52]
[unused53]
[unused54]
[unused55]
[unused56]
[unused57]
[unused58]
[unused59]
[unused60]
[unused61]
[unused62]
[unused63]
[unused64]
[unused65]
[unused66]
[unused67]
[unused68]
[unused69]
[unused70]
[unused71]
[unused72]
[unused73]
[unused74]
[unused75]
[unused76]
[unused77]
[unused78]
[unused79]
[unused80]
[unused81]
[unused82]
[unused83]
[unused84]
[unused85]
[unused86]
[unused87]
[unused88]
[unused89]
[unused90]
[unused91]
[unused92]
[unused93]
[unused94]
[unused95]
[unused96]
[unused97]
[unused98]
[unused99]
[UNK]
[CLS]
[SEP]
[MASK]
[unused100]
[unused101]
!
"
#
$
%
&
'
(
)
*
+
,
-
.
/
0
1
2
3
4
5
6
7
8
9
:
;
<
=
>
?
@
A
B
C
D
E
F
G
H
I
J
K
L
M
N
O
P
Q
R
S
T
U
V
W
X
Y
Z
[
\
]
^
_
`
a
b
c
d
e
f
g
h
i
j
k
l
m
n
o
p
q
r
s
t
u
v
w
x
y
z
{
|
}
~
¡
##e
£
##t
##o
##a
©
##i
«
##n
®
°
##s
##r
##h
´
##l
##d
·
##u
º
»
##m
##c
##y
¿
##g
##p
##f
##w
##.
##b
##k
##v
É
##I
##,
##T
##'
Ö
×
##S
##A
##R
##@
ß
à
á
â
ã
ä
å
æ
ç
è
é
ê
##:
ì
í
î
##M
ð
ñ
ò
ó
ô
õ
ö
##B
ø
ù
ú
##!
ü
##E
##C
##x
##*
ā
ă
ą
##0
ć
##O
č
##H
##W
đ
##P
##j
ę
##N
ğ
’
##’
##D
##?
##-
##L
##1
ı
##/
##(
#####
##2
ł
##Y
##F
##G
##"
…
##…
##;
ő
##)
##z
##q
##U
ś
##3
ş
##&
š
##[
##K
##]
##J
##_
##5
##^
##4
##V
##8
##6
##9
##7
ż
“
ž
##“
##|
##X
”
##”
##%
##$
##=
##Q
##+
ș
##Z
ț
##\
##é
##~
##`
##ä
—
##—
‘
##‘
##á
##ã
##å
##ó
##í
•
##•
α
##α
##ö
##ç
##{
##}
о
##о
##ü
ι
##ι
–
##–
ο
##ο
ε
##ε
а
##а
τ
##τ
##£
ν
##ν
͡
е
##е
и
##и
##à
н
##н
т
##т
##ê
##è
π
##π
σ
##σ
λ
##λ
ρ
##ρ
р
ά
έ
ή
ί
##р
β
γ
δ
с
ζ
η
θ
##с
κ
##κ
μ
в
ξ
##в
##μ
##ø
ς
##°
υ
##υ
φ
χ
##ς
ω
ό
ύ
ώ
##ú
л
##л
к
##к
##ă
♥
##♥
##æ
##η
д
##д
ا
##ا
м
##м
##ñ
у
##у
##ί
€
##€
##ά
п
##п
##ό
##>
##š
ل
##ل
б
이
г
##이
##ß
ж
з
##ı
й
##δ
##<
##õ
##έ
##γ
##ω
##ł
##´
##б
→
##→
х
ц
ч
ш
щ
я
ы
ь
##я
ю
##з
##χ
і
##ć
##ь
##č
★
##★
##â
##г
##ę
##·
ي
##ي
##»
##ô
##î
##θ
##ż
م
##م
##ч
##ą
##ή
##©
##ș
##ы
ن
##ن
##É
ر
##ر
و
##و
ו
≈
##≈
##ț
י
ा
##ा
##ž
##й
##ş
##«
##φ
##і
##¿
##ύ
##ś
##ù
##ð
ت
##ت
„
##„
##ж
☆
##☆
##ш
ب
ة
─
##─
・
##・
##β
د
##х
##ب
##®
س
##ώ
ه
##ه
##¡
##͡
ع
##د
ف
र
ك
##र
##ع
ร
##ร
##س
##ю
े
َ
##े
―
##―
の
##の
्
##्
##י
क
##क
。
##。
##ц
##ā
い
##い
त
##×
##ğ
न
つ
##つ
##ξ
स
##स
ー
##ー
##ف
##َ
##ő
##Ö
##ζ
##त
##ك
##đ
##ו
##ò
##न
##ة
##щ
「
##「
」
##」
##º
##ì
th
##er
##in
##ou
the
##at
##on
##ing
##or
##es
##nd
##en
to
##an
##ed
##ll
##it
##ar
##st
you
and
##re
##om
##is
in
##as
##le
of
##ot
be
##ic
##ve
##ut
##al
it
is
re
##ow
##et
##ay
##ion
on
that
wh
##ly
ha
for
##se
##ent
Th
##ac
##ld
##id
##am
##all
##ke
##gh
st
##ad
##ver
##ith
##im
an
##oo
##ere
##ch
with
##ir
li
##ur
##op
this
##ct
sh
RT
have
##ee
##ill
##th
not
do
##ally
was
##est
##ust
as
he
##ould
are
##ter
##ro
##ce
me
##ess
su
or
but
your
##ag
ne
##ome
my
##ri
so
##ght
##ers
we
con
The
can
at
##mp
##il
##ore
com
po
ab
they
de
##ant
##pp
ch
like
##un
##out
##ul
##ate
just
##one
if
##ation
al
##us
##ain
all
##ck
get
ex
##ab
##ight
tr
fr
wor
##ol
It
##art
go
up
##pe
pl
mo
any
##ame
out
##ak
##ard
se
##ink
##ig
##ack
##au
##ake
You
about
##ast
##and
##ff
##ie
##ive
would
some
don
le
##ment
from
pro
will
pe
##ist
##ood
##ort
##ople
##ind
what
one
##ook
more
##nt
##..
kn
##ime
##os
##um
##ase
##ven
people
Wh
##ue
##age
has
##ap
them
##ear
##act
us
##ause
##em
##ge
bec
pr
##ough
##ong
think
ever
there
te
##ity
see
know
ar
lo
no
who
by
qu
when
##ions
If
##ank
##ound
time
##ide
##ci
##her
comp
##ine
because
##00
want
##hing
##ies
act
##our
am
**
##ite
##od
##ose
en
##ice
##ays
##so
##ther
how
](
their
did
##ick
##el
post
amp
ag
ve
##ud
##ans
cont
##ous
##ry
work
sub
di
every
cl
##end
his
her
been
had
play
un
thing
need
man
##dit
##ra
good
really
##ich
does
sa
##ting
##lease
##if
We
##ble
He
This
ad
int
only
...
##ect
##orm
##reat
look
other
than
##own
##uck
##uch
year
off
make
##ip
too
##are
##ru
##ure
pre
##mo
##ree
##der
him
even
sp
gu
per
##ving
gt
much
##iz
##ass
over
then
##pt
##ew
she
##eel
now
could
bet
say
##ace
##oll
##omet
bot
##int
##able
##ber
##ia
##ence
That
##red
should
res
##ty
##ery
back
##lf
way
##ile
##ually
##ount
##ah
##cc
gr
##ved
##ically
bu
our
##per
being
##pl
were
dis
##be
bl
got
new
##he
St
somet
##ors
still
feel
also
##ade
And
##qu
##ach
##oy
here
But
ll
spe
right
In
##iss
use
##ish
into
going
game
##irst
part
##form
##ens
quest
##ance
##thing
##nder
##ob
##atch
##av
sc
They
##ated
##we
##ang
20
##iv
So
which
try
##fter
app
##ult
most
!!
very
##og
happ
##alk
##ail
##erson
Thank
something
##eep
##ason
br
hel
##ious
lot
##xt
first
##ild
;#
##ning
co
##ire
##ull
Please
##self
##ss
down
Re
##ub
##igh
help
may
##fore
start
again
##itt
mess
inc
never
##fe
##te
##read
diff
##wn
well
real
same
better
Ch
##ark
under
inter
after
aw
##aking
thr
##ave
##ory
##ary
##ool
point
love
where
day
doesn
why
##ond
What
##ations
sure
person
aut
Al
##--
tw
wr
##ress
My
##ways
##ms
fl
##riend
take
She
##ought
before
things
its
imp
##**
two
rec
##ord
said
##day
##ns
##ical
##ft
acc
No
didn
##ope
##other
years
comment
##ily
##oc
those
##akes
##reddit
great
id
long
cr
im
message
def
##ys
che
made
##ne
read
differ
ser
through
these
##ock
##ating
someone
10
##ict
end
##ise
New
##TS
There
between
##ful
).
though
three
##ably
On
around
##cer
used
such
des
##aw
during
find
subreddit
against
##ost
later
##az
##ards
known
many
while
His
actually
##ple
dr
##ince
until
##imes
American
fuck
University
bel
both
##vel
rep
United
became
head
##ial
second
As
##mer
##ics
show
##ual
always
born
ask
eyes
After
including
pret
took
##ign
ph
team
season
family
won
##ollow
own
called
name
ass
film
bad
rel
found
call
school
Not
##ons
best
place
away
##ath
cons
left
John
000
hand
since
World
supp
op
##](
number
each
life
area
##ves
four
shit
questions
##up
high
National
##pect
played
released
remo
began
States
album
home
last
keep
held
several
May
friend
autom
##ange
comm
School
mon
##ents
series
moder
##ell
##less
another
city
When
2010
side
At
dec
##les
came
face
June
hard
##gg
##ian
sm
March
early
September
wee
2011
looked
July
state
small
thought
went
January
October
rem
based
August
##ower
world
put
April
York
##ater
12
2012
2008
For
2009
group
along
few
South
little
##ote
following
November
mean
2013
December
set
2007
old
2006
2014
located
el
music
County
City
former
##air
room
talk
next
All
##man
pretty
father
house
let
body
15
automat
18
started
An
2015
town
car
line
War
large
population
named
British
company
member
five
big
single
reason
age
State
moved
February
11
Her
##rump
century
government
built
come
isn
##bably
However
within
How
men
door
without
Be
wasn
2016
water
One
system
knew
^^
died
League
turned
asked
North
Just
wanted
building
received
song
served
##ators
felt
##ible
station
band
##lic
local
public
himself
different
death
min
##get
30
Do
2005
16
night
behind
children
English
members
near
saw
together
son
14
voice
village
13
hands
Sh
##ute
due
French
London
top
told
open
published
third
2017
automatically
across
During
anything
final
often
include
25
getting
main
having
2004
once
..
sl
book
led
gave
late
front
##arm
club
##ann
German
included
species
College
form
opened
mother
women
enough
West
must
2000
power
att
17
making
half
##ames
order
might
doing
given
million
times
days
##oot
full
service
With
km
major
##ep
original
become
seen
II
north
six
give
perform
gen
national
International
##ash
24
##ib
District
lost
run
couldn
career
##ts
inst
2003
##IN
country
fun
House
air
tell
south
worked
woman
player
concer
almost
war
River
##ces
married
continued
Then
James
close
black
short
##ix
##na
using
history
returned
light
bit
bas
TH
William
##ittle
General
##rect
2002
##urn
support
100
among
From
feet
King
sim
21
19
established
district
2001
contact
##ever
##ton
level
Cup
These
written
games
others
already
title
story
##old
law
##ody
US
record
role
however
By
students
England
white
control
least
inside
land
##ets
22
action
community
##oney
##du
non
probably
produced
George
round
period
Park
business
various
##ats
kind
present
wife
far
taken
char
reached
David
able
version
working
young
live
created
joined
East
living
appeared
case
High
done
23
important
President
Award
France
position
office
looking
total
general
class
To
production
str
football
party
brother
please
mind
free
Street
hair
announced
development
either
nothing
moment
Church
followed
wrote
##ates
India
San
election
1999
lead
BTS
week
##rs
words
European
course
considered
America
arms
Army
political
##la
28
26
west
east
ground
further
church
less
site
First
tri
Australia
toward
California
##ness
described
works
mod
Council
heart
past
military
27
##ait
heard
field
human
soon
founded
1998
playing
trying
##ier
201
##ta
television
mouth
although
taking
win
fire
Division
##als
Party
Royal
program
Some
Don
Association
According
tried
TV
Paul
outside
daughter
Best
While
sec
match
recorded
Canada
closed
region
Air
above
months
elected
##da
follow
road
##eah
brought
move
1997
leave
##ax
Thomas
1996
ev
low
Robert
formed
##ik
services
points
Mr
miles
##ense
stop
rest
##OT
needed
international
release
floor
##ently
sound
##cial
killed
](/
dark
research
finished
language
Michael
professional
change
sent
50
upon
29
track
hit
event
2018
term
example
Germany
similar
return
##ism
fact
pulled
stood
says
ran
information
yet
result
developed
girl
eas
God
1995
areas
signed
decided
.*
Company
seemed
moderators
proble
turn
race
common
video
Charles
Indian
##uff
blood
art
red
belie
added
rather
1994
met
director
addition
design
average
minutes
32
##ted
available
bed
coming
happen
idea
##uss
Union
Road
remained
add
everything
##ma
running
care
finally
Chinese
appointed
1992
Australian
##ley
popular
sch
teams
##ER
##land
usually
project
social
Championship
possible
word
Russian
instead
mi
herself
##ike
Peter
Hall
Center
seat
style
money
1993
else
Department
table
Music
current
31
features
special
events
character
Two
square
sold
debut
ins
process
Although
Since
##ka
40
Central
currently
education
placed
watch
China
quickly
forward
seven
##ling
Europe
arm
performed
Japanese
1991
Henry
Now
Dr
##stand
##200
Group
myself
reg
UK
Washington
ten
deep
1990
Club
Japan
space
La
directed
smile
episode
hours
whole
##de
##iew
Why
wouldn
designed
strong
training
changed
Society
stage
involved
hadn
towards
leading
police
eight
kept
Institute
study
largest
child
eventually
private
modern
Court
throughout
pay
originally
attack
iss
ide
Great
longer
songs
alone
Thanks
wide
dead
walked
shot
count
Oh
force
##gr
Art
today
friends
Island
Richard
1989
center
construction
believe
size
White
ship
completed
sk
gone
fin
rock
sat
##ude
radio
below
entire
families
league
includes
type
lived
official
range
hold
featured
Most
kid
president
passed
means
cle
forces
lips
Mary
##cept
guitar
##ither
food
wall
Of
spent
Its
performance
hear
inv
Western
reported
sister
!!!
morning
##ready
especially
x200
Minister
itself
x200B
##app
groups
1988
##tion
Black
##ng
Well
raised
sometimes
Canadian
Paris
Spanish
replaced
schools
Academy
leaving
central
female
Christian
Jack
whose
college
onto
provided
Is
##ville
players
wom
stopped
##son
Museum
ob
everyone
books
fight
allowed
##ps
beginning
Records
awarded
parents
coach
##ings
Red
saying
concerns
Smith
Yes
Lake
Trump
aircraft
1987
##ize
previous
ft
vide
Italian
African
happened
vocals
Act
future
court
##fer
1986
degree
phone
makes
##vers
countries
winning
breath
Love
river
matter
Lord
Other
list
self
parts
##atter
provide
cut
shows
plan
1st
interest
##ized
Africa
stated
Sir
fell
owned
earlier
ended
competition
attention
1985
lower
nearly
##arly
older
stay
Saint
Also
certain
1984
fingers
blue
ind
fourth
Grand
##ules
king
Your
sy
chest
movement
states
moving
data
introduced
model
date
section
Los
deal
cur
skin
entered
middle
success
Texas
understand
summer
island
subm
Republic
length
husband
1980
##ey
mem
anyone
forced
via
base
500
job
covered
Festival
Roman
successful
rights
cover
Man
writing
Ireland
ter
related
goal
takes
buildings
true
weeks
1983
Because
opening
novel
ISBN
meet
gold
removed
mid
##ert
standing
Football
Chicago
shook
whom
##ki
1982
Day
feeling
scored
boy
higher
Force
leader
heavy
fall
question
sense
army
Second
energy
meeting
themselves
kill
##ox
board
census
##ya
##its
mine
meant
market
required
battle
campaign
attended
approximately
Kingdom
runs
active
##ha
contract
clear
previously
health
1979
Arts
complete
Catholic
couple
units
##io
##ather
Committee
shoulder
sea
systems
listed
disc
caught
tournament
compose
northern
author
Film
month
##men
holding
offered
personal
1981
southern
artist
traditional
studio
200
capital
##hip
regular
par
giving
organization
fam
news
Are
=/
managed
helped
studied
student
defeated
natural
industry
Year
noted
decision
Government
quite
##irl
smiled
1972
Maybe
tracks
##ale
Mark
##ont
media
engine
hour
Their
relationship
plays
property
structure
1976
ago
Hill
Martin
1978
ready
Many
Like
Bay
immediately
generally
Italy
Greek
practice
caused
division
significant
Joseph
speed
Let
thinking
completely
1974
primary
mostly
##field
cor
1975
##to
Even
writer
##led
dropped
magazine
collection
bre
route
highest
particular
films
lines
network
Science
loss
carried
direction
green
1977
location
producer
according
Women
Queen
neck
thus
independent
view
1970
Angeles
Soviet
distance
problem
Board
tour
western
income
appearance
access
Mexico
nodded
street
surface
arrived
believed
Old
1968
1973
becoming
whether
1945
figure
singer
stand
Following
issue
window
wrong
pain
Un
lives
issues
park
slowly
la
/?
##va
bring
Lee
operations
key
comes
fine
cold
famous
Navy
1971
Me
additional
individual
##ner
Zealand
goals
county
contains
Service
minute
2nd
reach
talking
particularly
##ham
movie
Director
glass
paper
studies
##co
railway
standard
Education
45
represented
Chief
Louis
launched
Star
terms
60
1969
experience
watched
Another
Press
Tom
staff
starting
subject
break
Virginia
nine
eye
sur
evidence
foot
##arn
companies
Prince
##ider
gun
create
Big
People
guy
Green
simply
numerous
##line
increased
twenty
##ga
##do
1967
award
officer
stone
Before
material
Northern
grew
male
plant
Life
legs
step
exper
unit
35
except
answer
et
report
response
Edward
commercial
edition
trade
science
##ca
Irish
Law
shown
rate
failed
##ni
remains
changes
mm
limited
larger
Later
cause
waiting
Time
##wood
cost
Bill
manager
activities
likely
allow
operated
retired
##ping
65
directly
Who
associated
effect
hell
Florida
straight
hot
Valley
management
girls
expected
eastern
Mike
chance
cast
centre
chair
hurt
problems
##li
walk
programs
Team
characters
Battle
edge
De
maybe
corner
majority
medical
Joe
Summer
##ember
attempt
Pacific
command
Radio
##by
names
municipality
1964
train
economic
Brown
feature
sex
source
agreed
remember
Three
1966
1965
Pennsylvania
victory
senior
annual
III
Southern
results
Sam
serving
religious
Jones
appears
##ition
despite
claimed
Both
musical
matches
fast
security
selected
Young
double
complex
hospital
chief
Times
ext
Championships
filled
Public
Despite
beautiful
Research
plans
Province
##ction
Wales
##ko
artists
metal
nearby
Spain
unt
rules
houses
supported
piece
##no
stared
recording
nature
legal
Russia
##ization
remaining
looks
##sh
bridge
closer
cases
scene
marriage
Little
##ately
uses
Earth
specific
Frank
theory
Good
discovered
referred
bass
culture
university
presented
Congress
##go
metres
continue
1960
ac
Awards
meaning
cell
composed
separate
Series
forms
Blue
cross
##tor
increase
test
computer
slightly
Where
Jewish
Town
tree
status
1944
variety
responsible
##ars
initially
##way
realized
pass
provides
Captain
Alexander
recent
score
broke
Scott
drive
financial
showed
Line
stories
ordered
soldiers
genus
operation
gaze
sitting
society
Only
hope
actor
##ES
Empire
Yeah
technology
happy
focus
policy
spread
situation
##ford
##ba
Mrs
##ention
Can
1963
Commission
touch
earned
troops
Under
1962
individuals
cannot
19th
##lin
mile
expression
exactly
suddenly
weight
dance
stepped
places
appear
difficult
Railway
anti
numbers
kilometres
star
##ream
department
ice
Britain
comple
Once
##lo
Boston
value
ro
mission
trees
Order
sports
join
serve
Major
poor
Poland
mainly
Theatre
pushed
Station
##ced
Lady
federal
silver
##ler
foreign
med
Eastern
##den
box
hall
subsequently
lies
acquired
1942
ancient
CD
History
Jean
beyond
##ger
El
pol
growing
championship
native
Parliament
Williams
watching
direct
overall
offer
##ove
80
Secretary
spoke
Latin
ability
check
safe
presence
##ative
headed
regional
planned
1961
Johnson
throat
consists
trans
extended
Or
bar
walls
Chris
stations
politician
Olympics
influence
share
fighting
speak
hundred
Carolina
die
stars
##tic
color
Chapter
sit
fear
sleep
goes
Francisco
oil
Bank
sign
physical
##berg
Dutch
seasons
##rd
Games
Governor
sorry
lack
Centre
memory
baby
smaller
charge
Did
multiple
ships
shirt
Assembly
amount
leaves
3rd
Foundation
conditions
1943
Rock
Democratic
Daniel
##AT
winner
products
##ina
store
latter
Professor
civil
prior
host
1956
soft
vote
needs
Each
link
1958
pressure
letter
normal
proposed
levels
records
1959
paid
intended
Victoria
purpose
okay
historical
issued
1980s
broadcast
rule
simple
picked
firm
Sea
1941
Elizabeth
1940
serious
featuring
highly
graduated
mentioned
choice
1948
replied
percent
Scotland
##hi
females
constructed
1957
settled
Steve
recognized
cities
crew
glanced
kiss
competed
flight
knowledge
editor
More
Conference
##iter
fifth
elements
defin
##tes
function
newspaper
recently
Miss
cultural
brown
twice
Office
1939
truth
Creek
1946
households
USA
1950
quality
##tt
border
seconds
destroyed
##AR
wait
ahead
build
image
90
cars
##mi
33
promoted
professor
##ject
bank
medal
text
broken
Middle
revealed
sides
wing
seems
channel
1970s
Ben
loved
effort
officers
Will
##wards
70
Israel
Jim
upper
fully
label
Jr
assistant
powerful
pair
positive
##my
gives
1955
20th
races
remain
kitchen
primarily
##ti
Sydney
easy
Tour
whispered
buried
300
News
Polish
1952
Duke
Columbia
produce
accepted
00
approach
minor
1947
Special
44
Asian
basis
visit
Fort
Civil
finish
formerly
beside
leaned
##ead
median
rose
coast
effects
supposed
Cross
ent
Corps
residents
Jackson
##OU
Bob
basketball
36
Asia
seem
Bishop
Book
eff
ring
##ze
owner
BBC
##ja
transferred
acting
em
appearances
walking
Le
press
grabbed
1954
officially
1953
##ouse
risk
taught
review
##ues
lay
##well
council
Avenue
seeing
losing
Ohio
Super
province
ones
travel
##sa
projects
equipment
spot
Berlin
administrative
heat
potential
shut
capacity
elections
growth
fought
Republican
mixed
Andrew
teacher
turning
strength
shoulders
beat
wind
1949
Health
follows
camp
suggested
perhaps
Alex
mountain
sw
divided
candidate
fellow
34
Show
necessary
workers
ball
horse
ways
fe
protect
gas
activity
younger
bottom
founder
Scottish
screen
treatment
easily
Ar
##house
dedicated
Master
warm
Night
Georgia
Long
von
##me
perfect
website
1960s
piano
efforts
##ON
Tony
sort
offers
Development
Simon
executive
##itch
save
Over
Senate
1951
1990s
draw
master
Police
##ius
renamed
boys
initial
prominent
damage
Co
##ov
##za
online
begin
occurred
captured
youth
Top
account
tells
Justice
conducted
forest
##town
bought
teeth
Jersey
##di
purchased
agreement
Michigan
##amp
campus
prison
becomes
product
secret
guess
Route
huge
types
drums
64
split
defeat
estate
housing
buy
brothers
Coast
declared
gener
titled
therefore
sun
commonly
alongside
Stadium
library
Home
article
steps
telling
slow
assigned
refused
laughed
wants
Nick
wearing
Rome
Open
es
Hospital
pointed
Taylor
lifted
escape
participated
cou
drama
parish
Santa
##wh
organized
mass
pick
Airport
gets
Library
unable
pull
Live
##ging
surrounding
##ries
focused
Adam
facilities
stuff
##ny
38
##ring
notable
era
connected
gained
operating
laid
Regiment
branch
defined
Christmas
machine
Four
academic
Iran
adopted
concept
Men
compared
search
traffic
Max
Maria
greater
##ding
widely
##burg
serves
1938
37
Go
hotel
shared
typically
scale
1936
leg
suffered
yards
pieces
Ministry
Wilson
episodes
empty
1918
safety
continues
yellow
historic
settlement
400
Come
Corporation
enemy
content
picture
evening
territory
method
trial
solo
driver
Here
##ls
entrance
Prize
spring
whatever
##alth
75
##ji
reading
Arthur
##cy
Our
clothes
Prime
Illinois
Kong
code
##ria
expl
Harry
Federal
chosen
administration
bodies
begins
stomach
Though
seats
Hong
density
Sun
leaders
Field
museum
chart
platform
languages
##ron
birth
holds
Gold
##ten
fish
combined
miss
4th
1937
largely
captain
trust
Game
van
boat
Oxford
basic
beneath
Islands
painting
nice
Toronto
path
males
sources
block
conference
parties
murder
clubs
crowd
calling
About
Business
peace
knows
lake
speaking
stayed
Brazil
allowing
Born
unique
thick
Technology
##que
receive
gi
semi
alive
noticed
format
##ped
coffee
digital
##ned
handed
guard
tall
faced
setting
plants
partner
claim
reduced
temple
animals
determined
classes
##res
estimated
##ied
Olympic
providing
Massachusetts
learned
Inc
Philadelphia
Social
carry
42
possibly
hosted
tonight
respectively
Today
shape
Mount
roles
designated
brain
etc
Korea
thoughts
Brian
Highway
doors
background
drew
models
footballer
tone
turns
1935
quiet
tower
wood
bus
write
software
weapons
flat
marked
1920
newly
tight
Eric
finger
Journal
FC
Van
rise
critical
Atlantic
granted
returning
communities
humans
quick
39
48
ranked
sight
pop
Swedish
Stephen
card
analysis
attacked
##wa
Sunday
identified
Jason
champion
situated
1930
expanded
tears
##nce
reaching
Davis
protection
Emperor
positions
nominated
Bridge
tax
dress
allows
avoid
leadership
killing
actress
guest
steel
knowing
electric
cells
disease
grade
unknown
##ium
resulted
Pakistan
confirmed
##ged
tongue
covers
##ments
roof
entirely
applied
votes
drink
interview
exchange
Township
reasons
##ised
page
calls
dog
agent
nose
teaching
##ds
##ists
advanced
wish
Golden
existing
vehicle
del
1919
develop
attacks
pressed
Sports
planning
resulting
facility
Sarah
notes
1933
Class
Historic
winter
."
audience
Community
household
Netherlands
creation
gl
keeping
1914
claims
dry
guys
opposite
##ters
explained
Ontario
secondary
difference
Francis
actions
organizations
yard
animal
Up
Lewis
titles
Several
1934
Ryan
55
Supreme
rolled
1917
distribution
figures
afraid
rural
yourself
##rt
sets
barely
Instead
passing
awards
41
silence
authority
occupied
environment
windows
engineering
surprised
flying
crime
reports
Mountain
powers
driving
succeeded
reviews
1929
Head
missing
Song
Jesus
opportunity
inspired
ends
albums
conversation
impact
injury
surprise
billion
learning
heavily
oldest
union
creating
##ky
festival
literature
letters
sexual
##tte
apartment
Final
comedy
nation
orders
##sen
contemporary
Power
drawn
existence
connection
##und
Post
Junior
remembered
##cess
Medal
castle
note
engineer
sounds
Beach
crossed
##dy
ear
scientific
sales
##ai
theme
starts
clearly
##ited
trouble
##gan
bag
##han
BC
sons
1928
silent
versions
daily
Studies
ending
Rose
guns
1932
headquarters
reference
obtained
Squadron
concert
none
du
Among
##don
prevent
Member
answered
staring
Between
##lla
portion
drug
liked
association
performances
Nations
formation
Castle
lose
learn
scoring
relatively
quarter
47
Premier
incl
Sweden
baseball
attempted
trip
worth
##weet
airport
fields
enter
honor
Medical
rear
commander
officials
condition
supply
materials
52
Anna
volume
threw
Persian
43
interested
Gallery
achieved
visited
laws
relief
Area
Matt
singles
Lieutenant
Country
fans
Cambridge
sky
Miller
effective
tradition
Port
##ana
minister
extra
entitled
System
sites
authorities
acres
committee
racing
1931
desk
trains
##itely
weren
Family
farm
##ins
industrial
##head
iron
49
abandoned
Out
Holy
chairman
waited
frequently
display
Light
transport
starring
Patrick
Engineering
eat
FM
judge
reaction
centuries
price
ty
Korean
defense
Get
arrested
1927
send
urban
##bs
pilot
Okay
Media
reality
arts
soul
thirty
poss
catch
generation
##nes
apart
Anne
drop
See
adv
sixth
trained
Management
magic
cm
height
Fox
Ian
resources
vampire
principal
Was
haven
##omm
Walter
Albert
rich
1922
causing
entry
##meric
shortly
46
worry
doctor
composer
rank
Network
bright
showing
regions
1924
wave
carrying
kissed
finding
missed
Earl
lying
target
vehicles
Military
controlled
dinner
##board
briefly
lyrics
motion
duty
strange
attempts
invited
kg
villages
5th
Land
ret
Christ
prepared
twelve
##ility
thousand
earth
copies
conf
transfer
citizens
Americans
politics
nor
theatre
Project
##bo
clean
rooms
laugh
##ran
application
contained
anyway
containing
Sciences
1925
rare
speech
exist
1950s
falling
passenger
jo
stands
51
experi
##very
phase
governor
kids
details
methods
Vice
employed
performing
counter
Jane
heads
Channel
wine
opposition
aged
1912
Every
##ird
highway
##ura
1921
aired
##eg
permanent
Forest
finds
joint
approved
##pur
brief
doubt
acts
brand
wild
closely
Ford
Kevin
chose
shall
port
sweet
##ump
asking
Americ
##bury
sought
Dave
Mexican
mom
Right
Howard
Moscow
Charlie
Stone
##mann
admitted
dam
wooden
1923
Officer
relations
Hot
combat
publication
chain
shop
inhabitants
proved
ideas
address
1915
Memorial
explain
increasing
conflict
Anthony
Melbourne
narrow
temperature
slid
1916
worse
selling
documentary
Ali
Ray
opposed
vision
dad
extensive
Infantry
commissioned
Doctor
offices
programming
core
respect
storm
##pa
##LL
##oss
promotion
der
struck
anymore
charac
Region
receiving
DVD
alternative
Bl
ride
maximum
1910
requ
Third
Affairs
cancer
Executive
##ush
dream
18th
Due
##ker
##worth
economy
IV
Billboard
identity
subsequent
statement
skills
##back
funding
##ular
Round
Foreign
truck
cour
lights
wondered
thank
frame
yes
Still
districts
fiction
Colonel
converted
150
grown
accident
critics
fit
Information
architecture
Point
Five
armed
Billy
poet
functions
consisted
suit
Turkish
Band
object
desire
##ities
sounded
flow
Norwegian
articles
Marie
pulling
thin
singing
Hunter
Human
Battalion
Federation
Kim
origin
represent
dangerous
weather
fuel
dri
num
Last
bedroom
aid
knees
Alan
angry
assumed
plane
Something
founding
concerned
global
Fire
##AN
exp
Portuguese
touched
Roger
nuclear
Register
Jeff
fixed
royal
lie
finals
NFL
Manchester
towns
handle
shaped
Chairman
Dean
launch
understanding
Children
violence
failure
sector
Brigade
wrapped
fired
sharp
tiny
developing
expansion
Free
institutions
technical
Nothing
otherwise
Main
inch
Saturday
wore
Senior
attached
cheek
representing
Kansas
##chi
##kin
actual
advantage
Dan
Austria
##dale
hoped
multi
squad
Norway
streets
1913
Services
hired
grow
pp
wear
painted
Minnesota
resp
Building
54
Philippines
1900
##ties
educational
Khan
Magazine
##port
Cape
signal
Gordon
sword
Anderson
cool
engaged
Commander
images
Upon
tied
Security
cup
rail
Vietnam
successfully
##ident
Muslim
gain
bringing
Native
hers
occurs
negative
Philip
Kelly
Colorado
category
##lan
600
Have
supporting
wet
56
stairs
Grace
observed
##ung
funds
restaurant
1911
Jews
),
##che
Jake
Back
53
asks
journalist
accept
bands
bronze
helping
tit
decades
mayor
survived
usual
influenced
Douglas
Hey
##izing
surrounded
retirement
Temple
derived
Pope
registered
producing
##ral
structures
Johnny
contributed
finishing
##ule
specifically
##king
patients
Jordan
internal
regarding
Samuel
Clark
##cri
afternoon
Finally
scenes
notice
refers
quietly
threat
Water
Those
Hamilton
promise
freedom
Turkey
breaking
maintained
device
lap
ultimately
Champion
Tim
Bureau
expressed
investigation
extremely
capable
qualified
recognition
items
##fort
Indiana
adult
rain
greatest
architect
Morgan
dressed
equal
Antonio
collected
drove
occur
Grant
graduate
anger
Sri
worried
standards
##ween
injured
somewhere
damn
Singapore
Jimmy
pocket
homes
stock
religion
aware
regarded
Wisconsin
##tra
passes
fresh
##ea
argued
Ltd
EP
Diego
importance
Census
incident
Egypt
Missouri
domestic
leads
ceremony
Early
camera
Father
challenge
Switzerland
lands
familiar
hearing
spend
educated
Tennessee
##__
##ram
Thus
concern
putting
inches
map
classical
Allen
crazy
valley
Space
softly
inf
pool
worldwide
climate
experienced
neighborhood
scheduled
neither
fleet
##RE
Girl
##aj
Part
engines
locations
darkness
Revolution
establishment
lawyer
objects
apparently
Queensland
Entertainment
bill
mark
Television
##ren
pale
demand
Hotel
selection
##rn
##ino
Labour
Liberal
burned
Mom
merged
Arizona
request
##lia
##light
hole
employees
##onest
incorporated
95
independence
Walker
covering
joining
##ica
task
papers
backing
sell
biggest
6th
strike
establish
inform
gently
59
Orchestra
Winter
protein
Juan
locked
dates
Boy
aren
shooting
Luke
solid
charged
Prior
resigned
interior
garden
spoken
improve
wonder
promote
hidden
##med
combination
Hollywood
Swiss
consider
##ks
Lincoln
literary
drawing
Marine
weapon
Victor
Trust
Maryland
properties
##ara
exhibition
understood
hung
Tell
installed
loud
fashion
affected
junior
landing
flowers
##iously
Internet
beach
Heart
tries
Mayor
programme
800
wins
noise
##ster
hum
58
contain
fair
delivered
##att
wedding
Square
advance
behavior
Program
Oregon
##rk
residence
realize
certainly
hill
Houston
57
indicated
##water
wounded
Village
massive
Moore
thousands
personnel
dating
opera
poetry
agree
causes
feelings
Frederick
applications
push
approached
foundation
pleasure
sale
fly
gotten
northeast
costs
raise
paintings
##ney
views
horses
formal
Arab
hockey
typical
representative
rising
##des
clock
stadium
shifted
Dad
peak
Fame
vice
disappeared
users
Way
Naval
prize
hoping
values
evil
Bell
consisting
##ón
Regional
##ines
improved
circle
carefully
broad
##ini
Fine
maintain
operate
offering
mention
Death
stupid
Through
Princess
attend
interests
ruled
somewhat
wings
roads
grounds
##ork
Greece
Champions
facing
hide
voted
require
Dark
Matthew
credit
sighed
separated
manner
##uring
Boys
1905
committed
impossible
lip
candidates
7th
Bruce
arranged
Islamic
courses
criminal
##ened
smell
##bed
08
consecutive
##ening
proper
purchase
weak
Prix
##orry
aside
introduction
Look
##ku
changing
budget
resistance
factory
Forces
agency
##tone
northwest
user
##ublic
stating
submiss
sport
Design
environmental
cards
concluded
Carl
250
accused
##ology
Girls
sick
intelligence
Margaret
responsibility
Guard
##ene
17th
sq
goods
##stem
hate
##ek
capture
stores
Gray
comic
Modern
Silver
Andy
electronic
wheel
---
Deputy
lol
Czech
zone
choose
constant
reserve
##lle
Tokyo
spirit
prop
degrees
flew
pattern
compete
Dance
##orn
secretary
Imperial
99
reduce
Hungarian
confused
##rin
Pierre
describes
regularly
Rachel
85
landed
passengers
super
##sis
historian
meters
Youth
##most
participate
##cing
arrival
tired
Mother
##gy
jumped
Kentucky
faces
feed
Israeli
Ocean
##olog
##án
plus
snow
techniques
plate
sections
falls
jazz
##ris
tank
loan
repeated
opinion
##pr
unless
rugby
journal
Lawrence
moments
shock
distributed
##ded
adjacent
Argentina
crossing
uncle
##ric
Detroit
communication
mental
tomorrow
session
Emma
Without
##gen
Miami
charges
Administration
hits
coat
protected
Cole
invasion
priest
09
Gary
enjoyed
plot
measure
bound
friendly
throw
musician
##lon
Se
Age
knife
damaged
birds
driven
lit
ears
breathing
Arabic
Jan
faster
Jonathan
##gate
Independent
starred
Harris
teachers
Alice
sequence
mph
file
translated
decide
determine
Review
documents
sudden
threatened
##IS
bear
distinct
decade
burning
##sky
1930s
replace
begun
extension
##time
Te
equivalent
accompanied
Christopher
Danish
##ye
Besides
##more
persons
fallen
Rural
roughly
saved
willing
ensure
Belgium
05
musicians
##sw
giant
Six
exact
worst
purposes
##bly
mountains
seventh
slipped
brick
07
##py
somehow
Carter
Iraq
cousin
favor
islands
journey
FIFA
contrast
planet
vs
calm
sing
concrete
branches
gray
profit
Russell
##ae
##ux
coll
philosophy
businesses
talked
parking
##ming
owners
Place
##tle
agricultural
Kate
06
southeast
draft
Eddie
earliest
forget
Dallas
Commonwealth
edited
66
inner
ed
operates
16th
Harvard
assistance
##si
designs
Take
bathroom
indicate
CEO
Command
Louisiana
av
Dublin
Books
1901
tropical
fucking
##tors
Places
tie
progress
forming
solution
62
letting
Br
studying
##jo
duties
Baseball
taste
Reserve
##unch
Ann
det
visible
##vi
notably
definitely
NCAA
southwest
Never
storage
mobile
writers
favorite
Pro
pages
truly
##joy
##tta
string
exam
98
Ross
row
##idae
Kennedy
##tan
Hockey
hip
waist
grandfather
listen
##ho
feels
busy
72
stream
obvious
cycle
shaking
Knight
##cially
Carlos
painter
trail
web
linked
04
Palace
existed
##ira
responded
closing
End
examples
Marshall
weekend
jaw
Denmark
lady
##pend
medium
chin
Story
option
fifteen
Moon
represents
makeup
investment
jump
childhood
Oklahoma
roll
normally
Ten
Operation
Graham
Seattle
Atlanta
paused
promised
rejected
treated
returns
flag
##ita
Hungary
danger
glad
movements
visual
subjects
credited
soldier
Norman
ill
translation
José
Quebec
medicine
warning
theater
praised
municipal
01
commune
churches
acid
folk
8th
testing
##tw
survive
Sound
devices
residential
severe
presidential
Mississippi
Austin
Perhaps
Charlotte
hanging
Montreal
grin
##ives
racial
partnership
shoot
shift
##nie
Les
downtown
Brothers
Garden
matters
restored
mirror
forever
winners
rapidly
poverty
##any
Until
DC
faith
hundreds
Real
Ukraine
Nelson
balance
Adams
contest
relative
ethnic
Edinburgh
composition
##nts
emergency
##van
marine
reputation
Down
pack
12th
Communist
Mountains
##gu
stages
measures
##ING
ABC
Li
victims
benefit
Iowa
Broadway
gathered
rating
Defense
classic
##ane
ceiling
contro
snapped
Everything
constituency
Franklin
Thompson
Stewart
entering
Judge
forth
##sk
wanting
smiling
moves
tunnel
premiered
grass
unusual
Ukrainian
bird
Friday
tail
Portugal
coal
element
Fred
guards
Senator
collaboration
beauty
Wood
chemical
beer
justice
signs
##ired
sees
##zi
Puerto
##zed
96
smooth
Bowl
gift
limit
97
heading
Source
wake
requires
Ed
Constitution
factor
Lane
factors
adding
Note
cleared
pictures
pink
##ola
Kent
Local
Singh
moth
Ty
##ures
courts
Seven
temporary
involving
Vienna
emerged
fishing
beh
defensive
stuck
secure
Tamil
##ret
bottle
03
Player
instruments
Spring
patient
flesh
contributions
cry
Malaysia
120
Global
da
Alabama
Within
##work
debuted
expect
Cleveland
##arch
retained
horror
10th
spending
Peace
Transport
grand
Crown
instance
institution
acted
Hills
mounted
Campbell
shouldn
##thers
pres
chamber
soil
88
Ethan
sand
cheeks
##gi
marry
61
weekly
classification
DNA
Elementary
Roy
##ages
Soon
Rights
gate
suggests
aspects
imagine
golden
beating
Studios
Warren
differences
significantly
glance
occasionally
commun
clothing
Assistant
depth
sending
possibility
mode
prisoners
requirements
daughters
dated
Representatives
prove
guilty
interesting
smoke
cricket
93
stud
rescue
Connecticut
underground
Opera
13th
reign
##ski
thanks
leather
equipped
routes
fan
Tr
script
Wright
bishop
Welsh
jobs
faculty
eleven
Railroad
appearing
anniversary
Upper
##down
anywhere
Rugby
Metropolitan
Meanwhile
Nicholas
champions
forehead
mining
drinking
76
Jerry
membership
Brazilian
Wild
Rio
scheme
Unlike
strongly
Pl
fill
##rian
easier
MP
Hell
##sha
Stanley
banks
Baron
##ique
Robinson
67
Gabriel
Austrian
Wayne
exposed
##wan
Alfred
1899
manage
mix
visitors
eating
##rate
Sean
commission
Cemetery
policies
Camp
parallel
traveled
guitarist
02
supplies
couples
poem
blocks
Rick
Training
Energy
achieve
appointment
Wing
Jamie
63
novels
##inal
1890
songwriter
Base
Jay
##gar
naval
scared
ref
labor
technique
crisis
Additionally
backed
destroy
seriously
tools
tennis
91
god
##ington
continuing
steam
obviously
Bobby
adapted
fifty
enjoy
Jacob
publishing
column
produ
Baltimore
Donald
Liverpool
92
drugs
movies
##ward
Heritage
##je
##istic
vocal
strategy
gene
advice
##bi
Ottoman
riding
##side
Agency
Indonesia
11th
laughing
sleeping
und
muttered
listening
deck
tip
77
ownership
grey
Claire
deeply
provincial
popularity
Cooper
abs
Emily
##sed
designer
Murray
describe
Danny
Around
Parker
##dae
68
rates
suffering
considerable
78
nervous
powered
tons
circumstances
wished
belonged
Pittsburgh
flows
9th
##use
belt
81
useful
15th
context
List
Dead
Iron
seek
Season
worn
frequency
legislation
replacement
memories
Tournament
Again
Barry
organisation
copy
Gulf
waters
meets
struggle
Oliver
ele
Susan
protest
kick
Alliance
components
Fr
Tower
Windows
demanded
regiment
sentence
Woman
Logan
Referee
hosts
debate
knee
Blood
##He
universities
practices
Ward
ranking
correct
happening
Vincent
attracted
classified
##stic
processes
immediate
waste
increasingly
Helen
##po
Lucas
Phil
organ
##aid
tea
suicide
actors
lb
crash
approval
waves
##ered
hated
grip
700
amongst
69
74
hunting
dying
lasted
illegal
##rum
stare
defeating
##gs
shrugged
##ying
Jon
Count
Orleans
94
affairs
formally
opt
liter
criticized
Disney
Vol
successor
tests
scholars
palace
Would
celebrated
rounds
grant
Schools
Such
commanded
demon
Romania
speci
Karl
71
##yn
84
Daily
totally
Medicine
fruit
Die
upset
Lower
Conservative
14th
Mitchell
escaped
shoes
Morris
##tz
queen
harder
prime
##oth
indeed
Sky
authors
rocks
definition
Nazi
accounts
printed
experiences
##usic
divisions
Cathedral
denied
depending
Express
##let
73
appeal
loose
colors
filed
##isation
gender
fav
throne
forests
Finland
domain
boats
Baker
squadron
shore
remove
##ification
careful
wound
railroad
82
seeking
agents
answ
Blues
##off
customers
ignored
net
##ph
hiding
Originally
declined
##mm
franchise
eliminated
NBA
merely
pure
appropriate
visiting
forty
markets
offensive
coverage
cave
##nia
spell
##lar
Benjamin
val
Convention
filmed
Trade
##sy
Cl
Having
palm
##!!
Evans
intense
plastic
Julia
document
jeans
vessel
SR
##fully
proposal
Birmingham
##ode
##cl
assembly
89
fund
lock
##ife
AD
meetings
occupation
modified
Years
odd
aimed
reform
Mission
Works
shake
cat
exception
convinced
executed
pushing
dollars
replacing
soccer
manufacturing
##ros
expensive
kicked
minimum
Josh
coastal
Chase
chang
Thailand
publications
deputy
Sometimes
Angel
effectively
##illa
criticism
conduct
Serbian
landscape
NY
absence
passage
##ula
Blake
Indians
opp
admit
Trophy
##ball
Next
##rated
##ians
charts
kW
orchestra
79
heritage
##ots
rough
exists
boundary
Bible
Legislative
moon
medieval
##over
cutting
print
##ett
birthday
##hood
destruction
Julian
injuries
influential
sisters
raising
statue
colour
dancing
characteristics
orange
##ok
##aries
Ken
colonial
twin
Larry
surviving
##shi
Barbara
personality
entertainment
assault
##ering
talent
happens
license
86
couch
Century
soundtrack
shower
swimming
cash
Staff
bent
##ality
bay
lunch
##lus
dozen
vessels
CBS
greatly
critic
Test
symbol
panel
shell
output
reaches
87
Front
motor
ocean
##era
##ala
maintenance
violent
scent
Limited
Las
Hope
Theater
Which
survey
Robin
recordings
compilation
##br
bomb
insurance
Authority
sponsored
satellite
Jazz
refer
stronger
blow
whilst
Wrestling
suggest
##rie
climbed
##els
voices
shopping
##oh
Neil
discovery
##vo
##alf
burst
Baby
peaked
Brooklyn
knocked
lift
ke
false
nations
Hugh
Catherine
preserved
distinguished
terminal
resolution
ratio
pants
cited
competitions
completion
DJ
bone
uniform
schedule
shouted
83
1920s
rarely
Basketball
Taiwan
artistic
bare
vampires
arrest
Utah
Marcus
assist
gradually
qualifying
Victorian
vast
rival
Warner
Terry
Economic
##cia
losses
boss
versus
audio
runner
apply
surgery
Play
twisted
comfortable
##cs
Everyone
guests
##lt
Harrison
UEFA
lowered
occasions
##lly
##cher
chapter
youngest
eighth
Culture
##room
##stone
cap
Songs
Seth
Digital
involvement
expedition
relationships
signing
1000
fault
annually
circuit
afterwards
meat
creature
cert
cable
Bush
##net
Hispanic
rapid
gonna
figured
extent
considering
cried
##tin
sigh
dynasty
##ration
cabinet
Richmond
stable
##zo
##iness
Admiral
Unit
occasion
shares
badly
longest
##ify
Connor
extreme
wondering
girlfriend
Studio
##tions
##vern
tribe
##gn
muscles
hat
Luis
Orthodox
decisions
amateur
description
##lis
hips
kingdom
curr
Portland
whereas
Bachelor
outer
discussion
partly
Arkansas
1880
dreams
perfectly
Lloyd
##bridge
asleep
##tti
Greg
permission
trading
pitch
mill
Stage
liquid
Keith
##tal
wolf
processing
stick
Jerusalem
profile
rushed
spiritual
argument
Ice
Guy
till
Delhi
roots
Section
missions
Glasgow
penalty
NBC
encouraged
identify
keyboards
##zing
##ston
ok
plain
informed
Bernard
thinks
fled
Justin
##ug
newspapers
##wick
Ralph
##zer
unlike
Stars
artillery
##ified
recovered
arrangement
searching
##pers
".
##rus
deaths
Egyptian
diameter
##ional
marketing
corporate
teach
marks
Turner
staying
hallway
Sebastian
chapel
naked
mistake
possession
Ex
dominated
jacket
creative
Fellow
Falls
Defence
suspended
employment
##rry
Hebrew
Hudson
Week
Wars
recognize
Natural
controversial
Tommy
que
Athletic
benefits
decline
intention
##osed
Lost
Wall
participation
elevation
supports
parliament
##Heart
concentration
Movement
##XO
competing
stops
behalf
##pecially
limits
funded
discuss
Collins
departure
obtain
woods
latest
universe
alcohol
Laura
rush
blade
funny
Dennis
forgotten
Amy
Symphony
apparent
graduating
Sp
Rob
Grey
collections
Mason
emotions
##ugh
literally
Any
counties
grou
nomination
fighter
habitat
respond
external
Capital
exit
Video
carbon
sharing
Bad
opportunities
Perry
photo
##mus
Orange
posted
remainder
transportation
portrayed
Labor
recommended
percussion
rated
Grade
rivers
partially
suspected
strip
adults
button
struggled
intersection
Canal
##ability
poems
claiming
Madrid
pos
Together
polit
Much
Vancouver
instrument
instrumental
pri
mad
angle
Control
Phoenix
Leo
Communications
mail
##ette
##ev
preferred
adaptation
alleged
discussed
deeper
##olute
Yet
Monday
volumes
thrown
Zane
##ross
displayed
rolling
dogs
Along
Todd
##ivity
withdrew
representation
belief
##sia
crown
Late
Short
hardly
grinned
romantic
Pete
##ken
networks
enemies
Colin
Eventually
Side
donated
##su
steady
grab
guide
Finnish
Milan
pregnant
controversy
reminded
##ese
Stuart
##bach
##dd
Race
Belgian
LP
Production
Zone
lieutenant
infantry
Child
confusion
sang
resident
##ez
victim
##azing
channels
Ron
businessman
##gle
Dick
colony
pace
producers
##ST
agencies
Craig
Lucy
Very
centers
Yorkshire
photography
##ched
Album
championships
Metro
substantial
Standard
terrible
directors
contribution
advertising
emotional
NOT
layer
segment
sir
folded
Roberts
ceased
Hampshire
##ray
detailed
partners
iHeart
##aring
Beth
genre
commented
generated
remote
aim
Hans
credits
concerts
periods
breakfast
gay
shadow
defence
Too
Had
transition
Afghanistan
##book
eggs
defend
##lli
writes
Systems
bones
##OO
seed
scientists
Shortly
Romanian
##zy
Freedom
muscle
hero
parent
agriculture
checked
Islam
Bristol
##ilar
Arena
cabin
Germans
electricity
ranks
viewed
medals
Wolf
associate
Madison
Sorry
fort
Chile
detail
widespread
attorney
boyfriend
##nan
Students
Spencer
##view
bite
Maine
demolished
Lisa
erected
Someone
operational
Commissioner
NHL
Coach
Bar
forcing
Dream
Rico
cargo
Murphy
##fish
##aut
distant
##master
##ora
Organization
doorway
Steven
traded
electrical
frequent
##rist
Branch
Sure
??
placing
Manhattan
attending
attributed
excellent
pounds
ruling
principles
component
Mediterranean
Vegas
machines
percentage
infrastructure
throwing
affiliated
Kings
secured
Caribbean
Track
Ted
honour
opponent
Virgin
Construction
grave
produces
Challenge
stretched
paying
BTS_
##ata
integrated
waved
Nathan
##ator
transmission
videos
##yan
##hu
Nova
descent
AM
Harold
conservative
Therefore
venue
competitive
##ui
conclusion
funeral
confidence
releases
scholar
##sson
Treaty
stress
mood
##sm
Mac
residing
Action
Fund
##row
animated
fitted
##kar
defending
voting
tend
##berry
answers
believes
##ED
helps
Aaron
##tis
themes
##lay
populations
Players
stroke
Trinity
electoral
paint
abroad
charity
keys
Fair
##pes
interrupted
participants
murdered
Days
supporters
##onna
expert
borders
mate
##llo
solar
architectural
tension
##bling
Parish
tape
operator
Cultural
Clinton
indicates
publisher
ordinary
sugar
arrive
rifle
acoustic
bro
assets
##shire
SS
sufficient
options
HMS
Classic
bars
rebuilt
governments
Beijing
reporter
screamed
Abbey
crying
mechanical
instantly
communications
Political
cemetery
Cameron
Stop
representatives
USS
texts
mathematics
innings
civilian
Serbia
##hill
practical
patterns
dust
Faculty
debt
sol
##cus
junction
suppose
experimental
Computer
Food
wrist
abuse
dealing
bigger
specif
principle
##pin
Muhammad
Fleet
Collection
attempting
dismissed
##burn
regime
Herbert
##ua
shadows
import
Eve
Lanka
sn
Performance
fictional
##lock
Noah
Run
##ific
exercise
broadcasting
##ract
RAF
Magic
Bangladesh
suitable
##low
##del
styles
toured
Code
identical
links
insisted
110
flash
Model
slave
Derek
Rev
fairly
Greater
sole
##lands
connecting
zero
bench
mor
switched
Fall
Owen
yours
Electric
shocked
convention
##bra
climb
memorial
swept
Racing
decides
belong
##nk
parliamentary
Pe
ages
proof
##dan
delivery
1860
##ów
sad
publicly
leaning
##ald
dirt
##EN
categories
##ared
burn
##bing
requested
Guinea
Historical
rhythm
relation
##heim
ye
pursue
merchant
##mes
lists
continuous
frowned
colored
tool
gods
involves
Duncan
photographs
Cricket
slight
Gregory
atmosphere
wider
Cook
##tar
essential
Being
FA
emperor
wealthy
nights
##bar
licensed
Hawaii
viewers
Language
load
nearest
milk
kilometers
platforms
##aim
territories
Rogers
sheet
Rangers
contested
##lation
isolated
assisted
swallowed
Small
Contemporary
Technical
Edwards
express
Volume
endemic
##ei
tightly
Whatever
indigenous
Colombia
##ulation
hp
characterized
##ida
Nigeria
Professional
duo
Soccer
slaves
Farm
smart
Attorney
Attendance
Common
salt
##vin
tribes
nod
sentenced
bid
sample
Drive
switch
instant
21st
Cuba
drunk
Alaska
proud
awareness
hitting
sessions
Thai
locally
elsewhere
Dragon
gentle
touching
##lee
Springs
Universal
Latino
spin
submission
Chart
recalled
Type
pointing
##ii
lowest
##ser
grandmother
Adelaide
Jacques
spotted
Buffalo
restoration
Son
Joan
farmers
Lily
##con
lucky
##dal
luck
eldest
##rant
Market
drummer
deployed
warned
prince
##ety
amazing
sailed
##oon
vi
Primary
traveling
Masters
Sara
cattle
Trail
gang
Further
desert
relocated
##ices
fil
Flight
illness
Munich
ninth
repair
Singles
##lated
Tyler
tossed
boots
Work
sized
earning
shoved
magazines
housed
##arma
researchers
Former
spun
premiere
spaces
organised
wealth
crimes
devoted
stones
Urban
automatic
hop
affect
outstanding
tanks
mechanism
Muslims
Ms
shots
argue
Jeremy
connections
Armenian
increases
rubbed
prof
retail
gear
Pan
bonus
jurisdiction
weird
concerning
whisper
##gal
Microsoft
tenure
hills
www
##where
porch
files
reportedly
venture
Storm
pur
Nature
killer
panic
fate
Secret
Wang
scream
drivers
belongs
Chamber
clan
monument
mixing
Peru
opin
Riley
Friends
Isaac
submarine
##aster
130
judges
harm
ranging
affair
prepare
pupils
##ield
Policy
decorated
Nation
slammed
activist
implemented
Room
qualify
Publishing
establishing
Baptist
touring
subsidiary
##nal
legend
##EA
laughter
PC
Athens
settlers
ties
dual
dear
Draft
strategic
Ivan
reveal
closest
dominant
Ah
##fect
Denver
bond
boundaries
drafted
tables
##TV
eyed
Edition
##ena
....
belonging
posts
Industrial
cream
Ridge
Hindu
scholarship
Ma
opens
initiated
##ational
yelled
compound
random
Throughout
grades
physics
sank
grows
exclusively
settle
Saints
brings
Amsterdam
Make
Hart
walks
battery
violin
##born
explanation
##ware
vot
##har
provinces
thrust
exclusive
sculpture
shops
##fire
VI
constitution
Barcelona
monster
Devon
Jefferson
Sullivan
bow
##din
desperate
##twt
Julie
##mon
##ising
govern
Jesse
abilities
golf
##OR
##via
##away
Raymond
measured
jury
firing
revenue
suburb
Bulgarian
##body
##cha
timber
Things
##weight
Morning
spots
Alberta
Data
explains
Kyle
friendship
raw
tube
demonstrated
aboard
immigrants
reply
breathe
Manager
ease
##ban
##dia
##ole
##vy
##ía
pit
ongoing
##lie
Gilbert
Costa
1940s
Report
voters
cloud
traditions
##MS
gallery
Jennifer
swung
Broadcasting
Does
diverse
reveals
arriving
initiative
##ani
Give
Allied
Pat
Outstanding
monastery
blind
Currently
##war
bloody
stopping
focuses
managing
Florence
Harvey
creatures
900
breast
internet
Artillery
purple
##mate
alliance
excited
fee
Brisbane
lifetime
Private
##aining
##nis
##gue
##ika
phrase
regulations
reflected
manufactured
conventional
pleased
client
honest
##IT
Pedro
reduction
norm
welcome
jail
comfort
Iranian
Norfolk
Dakota
##tein
evolution
everywhere
Initially
sensitive
Olivia
Oscar
implementation
sits
stolen
demands
slide
grandson
Pr
merger
##mic
Spirit
mov
ticket
root
difficulty
Nevada
emp
lined
Dylan
Original
Call
biological
EU
dramatic
##hn
Operations
treaty
gap
##list
Am
mar
moral
Butler
perspective
Furthermore
Manuel
absolutely
unsuccessful
disaster
dispute
preparation
tested
discover
##rew
shield
squeezed
brushed
battalion
Arnold
##ras
superior
treat
clinical
tot
Apple
Syria
Cincinnati
package
flights
editions
Leader
minority
wonderful
hang
Pop
Philippine
telephone
bell
honorary
##mar
balls
Democrat
dirty
thereafter
collapsed
Inside
slip
wrestling
##ín
listened
regard
bowl
None
Sport
completing
trapped
thread
copper
Wallace
Honor
blame
Peninsula
Rep
vis
Anglo
bearing
simultaneously
##sel
##ias
Mix
Got
speaker
voiced
impressed
prices
error
##MY
##feld
trials
Nine
Industry
substitute
Municipal
departed
slept
##ama
Junction
Socialist
flower
dropping
##oice
fantasy
[**
arrangements
travelled
furniture
fist
relieved
##tics
Leonard
linear
earn
expand
Soul
Plan
Leeds
Sierra
accessible
innocent
Winner
Fighter
Range
winds
vertical
Pictures
101
charter
cooperation
prisoner
interviews
recognised
sung
manufacturer
exposure
submitted
Mars
leaf
gauge
screaming
likes
eligible
creat
gathering
columns
##ants
belly
UN
maps
messages
speakers
:)
garage
situ
Number
Watson
sixteen
lots
beaten
Could
##atever
##ano
Horse
talks
Drake
scores
Venice
genetic
##mal
##ère
Cold
Jose
nurse
traditionally
##bus
Territory
Key
Nancy
##win
thumb
São
index
dependent
carries
controls
Comics
coalition
physician
referring
Ruth
Based
restricted
inherited
internationally
stretch
THE
plates
margin
Holland
knock
significance
valuable
Kenya
carved
emotion
conservation
municipalities
overseas
resumed
Finance
graduation
blinked
temperatures
constantly
productions
scientist
ghost
cuts
permitted
##ches
firmly
##bert
patrol
##yo
Croatian
attacking
1850
portrait
promoting
sink
conversion
##kov
cra
Guide
##val
nephew
relevant
Marc
drum
originated
Chair
visits
dragged
Price
favour
corridor
properly
respective
Caroline
reporting
inaugural
##ipp
industries
##ching
edges
Christianity
Maurice
Trent
Economics
carrier
Reed
##gon
tribute
Pradesh
dou
extend
attitude
Yale
##lu
settlements
glasses
taxes
targets
##ids
quarters
##ological
connect
hence
metre
collapse
underneath
banned
Future
clients
alternate
explosion
kinds
Commons
hungry
dragon
Chapel
Buddhist
lover
depression
pulls
##ges
##uk
origins
computers
crosses
kissing
assume
emphasis
lighting
##ites
personally
crashed
beam
touchdown
lane
comparison
##mont
Hitler
##las
execution
aff
acre
sum
Pearl
ray
##point
essentially
worker
convicted
tear
Clay
recovery
Literature
Unfortunately
Com
partial
Petersburg
Bulgaria
coaching
evolved
reception
enters
narrowed
elevator
therapy
defended
pairs
##lam
breaks
Bennett
Uncle
cylinder
##ison
passion
bases
Actor
cancelled
battles
extensively
oxygen
Ancient
specialized
negotiations
##rat
acquisition
convince
interpretation
##ution
photos
aspect
colleges
Artist
keeps
##wing
Croatia
##ona
Hughes
Otto
comments
##ides
Ph
Sweet
adventure
describing
Student
Shakespeare
scattered
objective
Aviation
Phillips
Fourth
athletes
##hal
##tered
Guitar
intensity
##umb
dining
curve
Obama
topics
legislative
Mill
Cruz
##augh
Members
recipient
Derby
inspiration
corresponding
fed
YouTube
coins
pressing
intent
Karen
cinema
Delta
destination
shorter
Christians
imagined
canal
Newcastle
Shah
Adrian
##oud
Males
160
liberal
lord
bat
supplied
Claude
meal
worship
##atic
Han
wire
BTS_twt
##tha
punishment
thirteen
fighters
##ibility
##reen
Ball
gardens
##ari
Ottawa
pole
indicating
Twenty
Higher
Bass
Ivy
farming
##urs
certified
Saudi
plenty
##used
restaurants
Representative
Miles
payment
##inger
##rit
Confederate
festivals
references
##ić
Mario
PhD
playoffs
witness
rice
mask
saving
opponents
enforcement
prov
relegated
##oe
radar
whenever
Financial
imperial
toget
influences
Abraham
skull
Guardian
Haven
Bengal
impressive
input
mixture
Warsaw
altitude
distinction
absolute
collective
Annie
##ean
##bal
directions
Flying
##nic
faded
##ella
contributing
prot
employee
##lum
##yl
ruler
oriented
conductor
focusing
##die
Giants
Mills
mines
Deep
curled
Jessica
guitars
Louise
procedure
Machine
failing
attendance
Nepal
Brad
Liam
tourist
exhibited
Sophie
depicted
Shaw
Chuck
##can
expecting
challenges
##nda
equally
resignation
ann
Tigers
loop
pitched
outdoor
reviewed
hopes
True
temporarily
karma
torn
jerked
collect
Berkeley
Independence
cotton
retreat
campaigns
participating
Intelligence
Heaven
##ked
situations
borough
Democrats
Harbor
##len
Liga
serial
circles
fourteen
##lot
seized
filling
departments
finance
ey
Roland
Nate
floors
raced
struggling
deliver
protests
##tel
Exchange
efficient
experiments
##dar
faint
3D
binding
Lions
lightly
skill
proteins
difficulties
##cal
monthly
camps
flood
loves
Amanda
Commerce
##oid
##lies
elementary
##tre
organic
##stein
loc
receives
Tech
enormous
distinctive
Joint
experiment
Circuit
citizen
##hy
shelter
ideal
practically
formula
addressed
Foster
Productions
YOU
variable
punk
Voice
fastest
concentrated
##oma
##yer
stored
surrender
vary
Sergeant
Wells
ward
Wait
lar
playoff
reducing
cavalry
##dle
Venezuela
tissue
amounts
sweat
##ully
Non
##nik
beetle
##bu
##tu
Jared
Hunt
dont
fat
Sultan
Living
Circle
Secondary
Suddenly
reverse
##min
Travel
##bin
Lebanon
##mas
virus
Wind
dissolved
enrolled
holiday
Keep
helicopter
Clarke
constitutional
technologies
doubles
instructions
hist
Azerbaijan
##ationship
occasional
frozen
trick
wiped
writings
Shanghai
preparing
challenged
mainstream
summit
180
##arian
##rating
designation
##ada
revenge
filming
tightened
Miguel
Montana
reflect
celebration
bitch
flashed
signals
rounded
peoples
##bers
renowned
Google
characteristic
Campaign
sliding
##ource
usage
Record
Using
woke
solutions
holes
theories
logo
Protestant
relaxed
brow
nickname
Reading
marble
Im
symptoms
Overall
capita
##ila
outbreak
revolution
deemed
Principal
Hannah
approaches
inducted
Wellington
vulnerable
Environmental
Drama
incumbent
Dame
col
travels
samples
accurate
physically
Sony
Nashville
##iting
repl
Tw
Producer
Lucky
tough
Stanford
resort
repeatedly
eyebrows
Far
choir
commenced
##ajor
##ridge
rage
swing
sequel
heir
buses
##oun
Grove
##late
##rick
updated
##SA
Delaware
##fa
Athletics
warmth
Off
excitement
verse
Protection
Villa
corruption
intellectual
Jenny
##lyn
mystery
prayer
healthy
##ologist
Bear
lab
Ernest
Remix
register
basement
Montgomery
consistent
tier
orig
Preston
Brooks
##maker
vocalist
laboratory
delayed
wheels
rope
bachelor
pitcher
Block
Nevertheless
suspect
efficiency
Nebraska
siege
FBI
planted
##AC
Newton
breeding
##ows
eighteen
Argentine
encounter
servant
partic
elder
Shadow
Episode
fabric
doctors
survival
removal
chemistry
volunteers
Kane
variant
arrives
Eagle
Left
##utes
Jo
divorce
hu
yesterday
Bryan
handling
diseases
customer
Sheriff
Tiger
Harper
##oi
resting
Linda
Sheffield
gasped
sexy
economics
alien
tale
footage
Liberty
yeah
fundamental
Ground
flames
Actress
photographer
Maggie
Additional
joke
custom
Survey
Abu
silk
consumption
Ellis
bread
##uous
engagement
puts
Dog
##hr
poured
guilt
prom
boxes
hardware
clenched
##cio
stem
arena
extending
##com
examination
Steel
encountered
revised
140
picking
Car
hasn
Minor
pride
Roosevelt
boards
##mia
blocked
curious
drag
narrative
brigade
##ube
mysterious
namely
connects
Devil
historians
##aps
quit
installation
Golf
empire
elevated
##eo
releasing
Bond
##uri
harsh
ban
##BA
contracts
cloth
presents
stake
chorus
##eau
swear
dist
allies
generations
Motor
meter
pen
warrior
veteran
##EC
comprehensive
missile
interaction
instruction
Renaissance
rested
Dale
fix
fluid
les
investigate
loaded
widow
exhibit
artificial
select
rushing
tasks
signature
nowhere
Engineer
feared
Prague
bother
extinct
gates
Bird
climbing
heels
striking
artwork
hunt
awake
##hin
Formula
thereby
commitment
imprisoned
Beyond
##MA
transformed
Agriculture
Low
Movie
radical
complicated
Yellow
Auckland
mansion
tenth
Trevor
predecessor
##eer
disbanded
sucked
circular
witch
gaining
lean
Behind
illustrated
rang
celebrate
bike
consist
framework
##cent
Shane
owns
350
comprises
collaborated
colleagues
##cast
engage
fewer
##eng
##ape
observation
diplomatic
legislature
improvements
Interstate
craft
MTV
martial
administered
jet
approaching
permanently
attraction
manuscript
numbered
Happy
Andrea
shallow
Gothic
Anti
##bad
improvement
trace
preserve
regardless
rode
dies
achievement
maintaining
Hamburg
spine
##atur
flowing
encourage
widened
bo
##bound
125
Southeast
Santiago
##bles
impression
receiver
Single
closure
##unt
communist
honors
Northwest
105
##ulated
cared
##ased
hug
magnetic
seeds
topic
perceived
prey
prevented
Marvel
Eight
Michel
Transportation
rings
Gate
##20
Byzantine
accommodate
floating
##dor
equation
ministry
##ito
##itter
Rules
earthquake
revealing
Brother
Celtic
blew
chairs
Panama
Leon
attractive
descendants
Care
Ambassador
tours
breathed
threatening
##cho
smiles
Lt
Beginning
argu
fake
assists
fame
strings
Mobile
Liu
parks
http
includ
brush
Aunt
bullet
consciousness
##sta
dep
consequences
gather
dug
##illion
bridges
Doug
##gin
Artists
ignore
Carol
brilliant
radiation
temples
basin
clouds
##cted
Stevens
spite
soap
consumer
Damn
Snow
recruited
##craft
Advanced
tournaments
Quinn
undergraduate
questioned
Palmer
Annual
Others
feeding
Spider
printing
##leep
cameras
functional
Chester
readers
Alpha
universal
Faith
Brandon
cop
authored
Ring
##ggest
aims
athletic
possessed
Vermont
programmes
##----
bore
Fisher
statements
shed
saxophone
neighboring
pronounced
barrel
bags
prev
organisations
pilots
casualties
Kenneth
##brook
silently
Malcolm
span
Essex
anchor
##hl
virtual
lessons
Henri
##ient
Page
pile
locomotive
wounds
uncomfortable
sustained
Diana
Eagles
##pi
2000s
documented
##bel
Cassie
delay
kisses
AN
variation
##vice
growled
##mark
vers
Leslie
studios
Friedrich
aunt
actively
armor
eaten
historically
Better
purse
honey
ratings
##ée
naturally
##OW
peer
Kenny
Cardinal
database
Looking
runners
handsome
Double
PA
##boat
##sted
protecting
##jan
Diamond
concepts
interface
##aki
Watch
Article
Columbus
dialogue
pause
##rio
extends
blanket
pulse
##itive
affiliate
ladies
Ronald
counted
kills
demons
##ories
Airlines
Marco
Cat
companion
mere
Yugoslavia
Forum
Allan
pioneer
Competition
Methodist
patent
nobody
Stockholm
##ien
regulation
##ois
accomplished
##AY
washed
sake
Vladimir
crops
prestigious
humor
Sally
labour
ap
trap
altered
examined
Mumbai
bombing
Ash
noble
suspension
ruins
##bank
spare
displays
guided
dimensional
Iraqi
##hon
sciences
Franz
relating
fence
followers
Palestine
invented
proceeded
Batman
Bradley
##yard
##ova
crystal
Kerala
##ima
shipping
handled
Want
abolished
Drew
##tter
Powell
Half
##table
##cker
**](
Were
assignment
assured
##rine
Indonesian
Grammy
acknowledged
Kylie
coaches
structural
clearing
stationed
Say
Total
Rail
besides
glow
threats
afford
Tree
Musical
fut
elite
centered
explore
Engineers
Su
Hello
tourism
severely
assessment
##Ar
crack
politicians
tech
sheets
volunteer
##borough
##hold
announcement
recover
contribute
lungs
##ille
mainland
presentation
Johann
Writing
##ital
##bird
Study
Boulevard
coached
fail
airline
Congo
Plus
Syrian
introduce
ridge
Casey
manages
##fi
searched
Support
succession
progressive
coup
cultures
##lessly
sensation
Cork
Elena
Sofia
Philosophy
mini
trunk
academy
Mass
Liz
practiced
Reid
##ommend
satisfied
experts
Wilhelm
Woods
invitation
Angels
calendar
joy
Sr
Dam
packed
##uan
bastard
Workers
broadcasts
logic
cooking
backward
ton
Chen
creates
enzyme
##xi
Davies
aviation
VII
Conservation
##ET
Knights
##kan
requiring
contin
wars
ate
##box
Mind
desired
oak
absorbed
Really
Vietnamese
Paulo
athlete
##car
##eth
Talk
Wu
##cks
survivors
Yang
Joel
Almost
Holmes
Armed
Joshua
priests
discontinued
##sey
blond
Rolling
suggesting
CA
clay
exterior
Scientific
--
Giovanni
Hi
farther
contents
Winners
animation
neutral
mall
Notes
layers
professionals
Armstrong
Against
Piano
involve
monitor
angel
parked
bears
seated
feat
beliefs
##kers
Version
suffer
est
guidance
##eur
honored
raid
alarm
Glen
Ellen
Jamaica
trio
enabled
##ils
procedures
##hus
moderate
upstairs
##ses
torture
Georgian
rebellion
Fernando
Nice
invest
Aires
Campus
beast
pict
##icial
##FA
Isle
##esome
Princeton
cathedral
Oakland
Solomon
##tto
Milwaukee
upcoming
midfielder
Neither
sacred
Eyes
appreciate
Brunswick
secrets
Rice
Somerset
Chancellor
Curtis
##gel
Rich
separation
grid
##los
##bon
urge
##ees
##IC
freight
towers
psychology
requirement
dollar
##fall
er
exile
tomb
Salt
Stefan
Buenos
Revival
Porter
tender
diesel
chocolate
Eugene
Legion
Laboratory
sheep
arched
hospitals
orbit
Full
##hall
drinks
ripped
##RS
tense
Hank
leagues
##fortun
PlayStation
fool
Punjab
relatives
Comedy
##ains
lim
Tonight
Sox
rac
Rabbi
org
speaks
institute
defender
painful
wishes
Weekly
literacy
portions
snake
item
deals
##ensive
autumn
sharply
reforms
thighs
prototype
mil
argues
disorder
Physics
terror
provisions
refugees
predominantly
independently
march
##graphy
Arabia
Andrews
Bus
Money
drops
##zar
pistol
matrix
revolutionary
rele
Starting
##ptic
Oak
Monica
##ature
servants
##hed
archaeological
divorced
rocket
enjoying
fires
##nel
assembled
qualification
retiring
##fied
recommend
handful
infection
Durham
##itz
fortune
renewed
Chelsea
Ne
curved
gesture
retain
exhausted
##ifying
Perth
jumping
Palestinian
Simpson
colonies
steal
##chy
corners
Finn
arguing
Martha
##var
Betty
emerging
Heights
Hindi
Manila
pianist
founders
regret
Napoleon
elbow
overhead
bold
praise
humanity
##ori
Revolutionary
##OM
fur
const
Ashley
Official
##rm
lovely
Architecture
##sch
##Awards
virtually
##OS
descended
immigration
##das
##kes
Holly
Wednesday
maintains
theatrical
Evan
Gardens
citing
##gia
segments
Bailey
Ghost
##city
governing
graphics
##ined
privately
potentially
transformation
Crystal
Cabinet
sacrifice
hesitated
mud
Apollo
Desert
bin
victories
Editor
##ester
Web
Case
tourists
Brussels
Franco
compiled
topped
Gene
engineers
commentary
egg
escort
nerve
arch
necessarily
frustration
Michelle
democracy
genes
Facebook
halfway
##aa
102
flipped
Won
##mit
NASA
Lynn
Provincial
ambassador
Inspector
exc
Change
McDonald
developments
tucked
noting
Gibson
circulation
dubbed
armies
resource
Headquarters
##iest
Mia
Albanian
Oil
Albums
excuse
intervention
Grande
Hugo
integration
civilians
depends
reserves
Dee
compositions
identification
restrictions
quarterback
Miranda
Universe
favourite
ranges
hint
loyal
Op
entity
Manual
quoted
dealt
specialist
Zhang
download
Westminster
Rebecca
streams
Anglican
variations
Mine
detective
Films
reserved
##oke
##key
sailing
##gger
expanding
recall
discovers
particles
behaviour
Gavin
blank
permit
Java
Fraser
Pass
##non
##TA
panels
statistics
notion
courage
dare
venues
##roy
Box
Newport
travelling
Thursday
warriors
Glenn
criteria
360
mutual
restore
varied
bitter
Katherine
Bec
ritual
bits
Che
Henderson
trips
Richardson
Detective
curse
psychological
Il
midnight
streak
facts
Dawn
Indies
Edmund
roster
Gen
##nation
##raw
congregation
shaft
##elt
##mination
Indianapolis
Sussex
loving
##bit
sounding
horrible
Continental
Griffin
advised
magical
millions
##date
##selves
Safety
lifting
determination
valid
dialect
Penn
Know
triple
avoided
dancer
judgment
sixty
farmer
lakes
blast
aggressive
Abby
tag
chains
inscription
##nn
conducting
Scout
buying
##wich
spreading
##OC
array
hurried
Environment
improving
prompted
fierce
Taking
Away
tune
pissed
Bull
catching
##ided
eyebrow
metropolitan
terrain
##rel
Lodge
manufacturers
creator
##etic
happiness
ports
##ners
Relations
fortress
targeted
mult
allegedly
blues
##osa
Bosnia
##dom
burial
similarly
stranger
pursued
symbols
rebels
reflection
routine
traced
indoor
eventual
bab
##ão
##una
MD
##phone
oh
grants
Reynolds
rid
operators
##ones
Joey
vital
siblings
keyboard
hy
removing
societies
drives
solely
princess
lighter
Various
Cavalry
believing
SC
underwent
relay
smelled
syndrome
welfare
authorized
seemingly
Hard
chicken
##rina
Ages
Bo
democratic
barn
Eye
shorts
##coming
##hand
disappointed
unexpected
centres
Exhibition
Stories
Site
banking
accidentally
Agent
conjunction
André
Chloe
resist
width
Queens
provision
##upid
Melissa
lik
Del
prefer
abruptly
duration
##vis
Glass
enlisted
##ado
discipline
Sisters
carriage
##ctor
htt
fig
log
##ror
obv
closet
collecting
holy
rape
trusted
cleaning
inhabited
Rocky
104
editorial
##yu
##ju
succeed
strict
Cuban
##iya
Bronze
outcome
##ifies
##set
corps
Hero
barrier
Kumar
##velop
Nina
Burton
enable
stability
Milton
knots
##ination
slavery
##borg
curriculum
trailer
warfare
Dante
Edgar
revival
Copenhagen
define
advocate
Garrett
Luther
overcome
pipe
750
construct
Scotia
kings
flooding
##hard
Ferdinand
Felix
forgot
Fish
Kurt
elaborate
##BC
graphic
gripped
colonel
Sophia
Advisory
Self
viol
##lio
monitoring
seal
senses
rises
peaceful
journals
##ior
checking
legendary
Ghana
##power
ammunition
Rosa
Richards
OP
ferry
aggregate
Troy
##esh
##wall
Triple
steep
tent
Cyprus
##ried
##woman
commanding
farms
doi
navy
specified
na
##AM
transported
Think
##cle
grateful
solve
##core
beings
clerk
grain
vector
discrimination
##TC
Katie
reasonable
drawings
veins
consideration
Monroe
repeat
breed
dried
witnessed
ordained
Current
spirits
remarkable
consultant
urged
Remember
anime
singers
phenomenon
Rhode
Carlo
demanding
findings
manual
varying
Fellowship
generate
safely
heated
withdrawn
##ao
Qu
##zon
##lav
##ency
Col
Memphis
imposed
rivals
Planet
healing
##hs
ensemble
Warriors
##bone
cult
Frankfurt
##HL
diversity
Gerald
intermediate
##izes
reactions
Sister
##ously
##lica
quantum
awkward
mentions
pursuit
##ography
varies
profession
molecular
consequence
lectures
cracked
103
slowed
ign
cheese
upgraded
suite
substance
Kingston
1800
Idaho
Theory
##een
ain
Carson
Molly
upd
configuration
Whitney
reads
audiences
##tie
Geneva
Outside
##nen
##had
transit
volleyball
Randy
Chad
rubber
motorcycle
respected
eager
Level
coin
##lets
neighbouring
##mor
confident
##cious
poll
uncertain
punch
thesis
Tucker
pot
Alec
##ographic
##law
sal
desperately
1812
Lithuania
accent
Cox
lightning
skirt
##load
Burns
Dynasty
hur
chapters
Working
dense
Morocco
##kins
casting
Set
activated
oral
Brien
horn
HIV
dawn
stumbled
altar
tore
considerably
Nicole
interchange
registration
biography
Hull
Stan
bulk
consent
Pierce
##aken
Fifth
marched
terrorist
##piece
##acy
Presidential
Heather
staged
Plant
relegation
sporting
joins
iHeartAwards
Pakistani
dynamic
Heat
##aph
ourselves
Except
Elliott
nationally
goddess
investors
Burke
Jackie
phot
##RA
Tristan
Associate
Tuesday
scope
Near
bunch
##abad
##ben
sunlight
##aire
manga
Willie
trucks
boarding
Lion
lawsuit
Learning
Der
pounding
awful
##mine
IT
Legend
romance
Serie
AC
gut
precious
Robertson
hometown
realm
Guards
Tag
batting
##vre
halt
conscious
##come
acquire
collar
Mar
##ops
Herald
nationwide
citizenship
Aircraft
decrease
Ad
Fiction
Female
corporation
Located
ep
fights
unconscious
Tampa
Poetry
lobby
Malta
basically
##bie
layout
Tate
reader
stained
##bre
Edit
##ulate
loudly
Eva
Cohen
exploded
Merit
Maya
##rable
Rovers
##fortunately
Morrison
Should
vinyl
##mie
onwards
##gie
vicinity
Wildlife
probability
uni
Barnes
.)
spinning
Moses
##vie
Surrey
Planning
conferences
protective
Plaza
deny
Canterbury
manor
Estate
tilted
comics
IBM
destroying
server
Dorothy
##horn
Oslo
lesser
heaven
Marshal
scales
strikes
##lish
firms
attract
##BS
controlling
Bradford
##ether
Amazon
Travis
Janet
governed
appro
Train
Holden
bleeding
gifts
rent
##andom
palms
.”
judicial
Ho
Finals
conflicts
unlikely
draws
##cies
compensation
adds
elderly
Anton
lasting
Nintendo
codes
ministers
fre
associations
capabilities
##cht
libraries
##sie
chances
performers
runway
##af
##OP
Mid
Vocals
hor
##eon
interpreted
priority
Uganda
ruined
Mathematics
cook
AFL
Lutheran
AIDS
Capitol
chase
axis
Moreover
assum
Saxon
storyline
##unk
Tears
Kid
cent
colours
Sex
##long
pm
blonde
Edwin
CE
diocese
Gr
##boy
Inn
##ller
Saskatchewan
##kh
stepping
Windsor
##oka
##eri
Xavier
Resources
##gress
##top
##rad
##lls
Testament
poorly
Rem
drifted
slope
CIA
remix
Lords
mature
hosting
diamond
beds
mods
luxury
trigger
##lier
preliminary
hybrid
journalists
Enterprise
proven
expelled
insects
Beautiful
lifestyle
vanished
eng
##ander
matching
surfaces
Dominican
Kids
referendum
Orlando
Truth
Sandy
privacy
Calgary
Speaker
beaut
Nobody
shifting
##gers
Roll
Armenia
Hand
##hh
106
EXO
Guild
larvae
Stock
flame
gravity
enhanced
Marion
surely
##tering
Tales
algorithm
Emmy
darker
VIII
##lash
bull
deliberately
occurring
choices
Gage
fees
settling
ridiculous
##ela
Sons
Dem
custody
##ID
proclaimed
Cardinals
##pm
Metal
Ana
##aper
clue
Cardiff
riders
observations
MA
sometime
##och
performer
intact
Points
allegations
rotation
Tennis
tenor
Directors
##ply
Transit
thigh
Complex
##works
##irth
Factory
doctrine
Daddy
##ished
pretend
Winston
cigarette
##IA
specimens
hydrogen
smoking
mathematical
arguments
openly
developer
##iro
fists
somebody
##san
Standing
Caleb
intelligent
Stay
Interior
echoed
Valentine
varieties
Brady
cluster
Ever
voyage
##of
deposits
ultimate
Hayes
horizontal
proximity
##ás
estates
exploration
NATO
Classical
##outh
bills
condemned
##ences
hunger
##ato
planes
deserve
offense
sequences
rendered
acceptance
##ony
manufacture
Plymouth
innovative
predicted
##RC
Fantasy
##une
supporter
absent
Picture
bassist
rescued
##MC
Ahmed
Monte
##sts
##rius
insane
##oose
##és
agrees
Antarctic
Lancaster
Hopkins
calculated
startled
##star
tribal
Amendment
##hoe
invisible
patron
deer
Walk
tracking
Lyon
tickets
##bt
philosopher
compounds
chuckled
##wi
pound
loyalty
Academic
petition
refuses
marking
Mercury
bor
dimensions
scandal
Canyon
patch
publish
##oning
Peak
minds
##boro
Presbyterian
Hardy
theoretical
magnitude
bombs
cage
##ders
##kai
measuring
explaining
avoiding
touchdowns
Card
theology
##ured
Popular
export
suspicious
Probably
photograph
Lou
Parks
Arms
compact
Apparently
excess
Banks
lied
stunned
territorial
Filipino
spectrum
learns
wash
imprisonment
ugly
##rose
Albany
Erik
sends
##hara
##rid
consumed
##gling
ca
Da
opposing
Magnus
footsteps
glowing
delicate
Alexandria
Ludwig
gorgeous
Bros
Index
##PA
customs
preservation
bonds
##mond
environments
cann
instructed
parted
adoption
locality
workshops
goalkeeper
##rik
##uma
Brighton
Slovenia
##ulating
Russ
towel
hugged
stripped
Bears
upright
Wagner
##aux
secretly
Adventures
nest
Course
Lauren
Boeing
Abdul
Lakes
450
##cu
USSR
caps
Chan
##nna
conceived
Actually
Belfast
Lithuanian
concentrate
possess
militia
pine
protagonist
Helena
##PS
##band
Belle
Clara
Reform
currency
pregnancy
1500
##rim
Isabella
hull
Name
trend
journalism
diet
##mel
Recording
acclaimed
Tang
Jace
steering
vacant
suggestion
costume
laser
equ
##aces
##pan
##ccess
integral
achievements
wise
classroom
unions
Happ
##uer
Garcia
toss
Tara
Large
Sc
evident
responsibilities
populated
satisfaction
##bia
casual
Ecuador
##icle
arose
##rib
Cornwall
embrace
refuse
Heavyweight
XI
Eden
activists
##uation
biology
##shan
fraud
Fuck
matched
legacy
Rivers
missionary
extraordinary
Didn
holder
wickets
crucial
Writers
Hurricane
Iceland
gross
trumpet
accordance
hurry
flooded
doctorate
Albania
##yi
united
deceased
jealous
grief
flute
portraits
##yle
pleasant
foc
Face
crowned
Raja
advisor
Salem
##ec
Achievement
admission
freely
minimal
Sudan
developers
estimate
disabled
##lane
downstairs
Bruno
##pus
##agine
##ially
lecture
deadly
underlying
optical
witnesses
Combat
Julius
tapped
variants
##like
Colonial
Critics
Similarly
mouse
voltage
##idence
Concert
salary
Frances
##ground
hook
premises
Software
instructor
nominee
##iful
fog
slopes
##zu
vegetation
sail
depend
Body
Apart
atop
View
utility
ribs
cab
migration
##wyn
bounded
2019
pillow
trails
ra
Halifax
shade
Rush
##lah
##dian
Notre
interviewed
Alexandra
Springfield
Indeed
rubbing
dozens
amusement
legally
##lers
Jill
Cinema
ignoring
Choice
##ills
pockets
##nell
laying
Blair
tackles
separately
##teen
Criminal
performs
theorem
Communication
suburbs
##iel
competitors
rows
##hai
Manitoba
Eleanor
interactions
nominations
assassination
##dis
Edmonton
diving
##reme
essay
##tas
AFC
Edge
directing
imagination
sunk
implement
Theodore
trembling
sealed
##rock
Nobel
##ancy
##dorf
##chen
genuine
apartments
Nicolas
AA
Bach
Globe
Store
220
##10
Rochester
##ño
alert
107
Beck
##nin
Naples
Basin
Crawford
fears
Tracy
##hen
disk
##pped
seventeen
Lead
backup
reconstruction
##lines
terrified
sleeve
nicknamed
popped
##making
##ern
Holiday
Gospel
ibn
Cong
convert
divine
resolved
##quet
ski
realizing
##RT
Legislature
reservoir
Rain
sinking
rainfall
elimination
challenging
tobacco
##outs
Given
smallest
Commercial
pin
rebel
comedian
exchanged
airing
dish
Salvador
promising
##wl
relax
presenter
toll
aerial
##eh
Fletcher
brass
disappear
zones
adjusted
contacts
##lk
sensed
Walt
mild
toes
flies
shame
considers
wildlife
Hanna
Arsenal
Ladies
naming
##ishing
anxiety
discussions
cute
undertaken
Cash
strain
Wyoming
dishes
precise
Angela
##amm
hostile
twins
115
Built
##pel
Online
tactics
Newman
##bourne
unclear
repairs
embarrassed
listing
##ands
Vale
IS
Meredith
bout
##ams
velocity
tips
froze
evaluation
demonstrate
##card
criticised
Nash
lineup
Rao
monks
bacteria
lease
Gu
frightened
den
revived
finale
##rance
flee
Letters
decreased
##ister
Sounds
wrap
Sharon
incidents
renovated
everybody
stole
Bath
boxing
dank
withdraw
backs
interim
react
murders
Rhodes
Copa
framed
flown
Estonia
Heavy
explored
mag
##GA
##ali
Istanbul
##ault
##rite
##aging
##ision
Episcopal
arc
orientation
Maxwell
infected
##rot
BCE
Brook
grasp
Roberto
Excellence
108
withdrawal
Marines
rider
Lo
##sin
##run
suck
garrison
hurricane
facade
Prussia
crushed
enterprise
##mber
Twitter
Generation
Physical
Sugar
editing
communicate
Ellie
##hurst
Ernst
wagon
promotional
conquest
Parliamentary
courtyard
lawyers
Superman
email
Prussian
lately
lecturer
Singer
Majesty
Paradise
sooner
Heath
slot
curves
convoy
##vian
induced
synonym
breeze
##plane
mis
ment
Coalition
##hia
odds
##par
##lina
Tomorrow
Nadu
##ico
##rah
damp
autonomous
console
Victory
counts
Luxembourg
intimate
##nect
Carroll
spy
Zero
habit
Always
faction
teenager
Johnston
chaos
ruin
commerce
blog
##shed
##the
reliable
Word
Yu
Norton
parade
Catholics
damned
##iling
surgeon
##tia
Allison
Jonas
remarked
##ès
idiot
Making
proposals
Industries
strategies
artifacts
batteries
reward
##erv
pie
distinguish
lengths
Jeffrey
Progressive
kicking
Patricia
##gio
ballot
##ios
skilled
ant
Colt
limestone
##AS
peninsula
##itis
LA
hotels
shapes
Crime
depicting
##ained
HD
silly
Das
typ
##ws
DO
##matic
thermal
Has
forgive
surrendered
Palm
Nacional
drank
haired
Mercedes
##foot
loading
Timothy
##roll
mechanisms
traces
digging
discussing
Natalie
##zhou
Forbes
landmark
Anyway
Manor
conspiracy
gym
knocking
viewing
Formation
Pink
Beauty
limbs
Phillip
sponsor
Joy
granite
Harbour
##ero
payments
dem
conviction
##dam
Hood
estimates
lacked
Mad
Jorge
##wen
refuge
##LA
invaded
Kat
suburban
##fold
investigated
Ari
complained
creek
Georges
##uts
powder
accepting
deserved
carpet
Thunder
molecules
Legal
cliff
strictly
enrollment
ranch
##rg
reddit
proportion
renovation
crop
grabbing
##liga
finest
entries
receptor
helmet
blown
Listen
flagship
workshop
resolve
nails
Shannon
portal
jointly
shining
Violet
overwhelming
upward
Mick
proceedings
##dies
posting
Laurence
Churchill
##rice
commit
170
inclusion
Examples
##verse
incre
fury
paths
##SC
ankle
nerves
Chemistry
rectangular
sworn
screenplay
cake
Mann
Seoul
Animal
sizes
Speed
vol
Population
Southwest
Hold
continuously
THIS
wishing
Fighting
Made
disappointment
Portsmouth
Thirty
##beck
Ahmad
teammate
MLB
graph
Charleston
realizes
##ases
exhibits
preventing
##VE
fever
rivalry
Male
mentally
dull
##lor
##rich
consistently
##igan
Madame
certificate
suited
Krishna
accuracy
Webb
Budapest
Rex
##ruct
Cornell
OK
surveillance
##ips
habitats
Adventure
Conrad
Superior
Gay
sofa
aka
boot
Statistics
Jessie
Liberation
##lip
##rier
brands
saint
##ague
Christine
bath
Rhine
ballet
Jin
consensus
chess
Arctic
stack
furious
cheap
toy
##yre
##face
##gging
##Army
##reci
Romans
membrane
answering
25th
architects
sustainable
##yne
Hon
.**
Baldwin
dome
##awa
##zen
celebrity
enclosed
##uit
##mmer
Electronic
locals
##CE
supervision
mineral
Chemical
Slovakia
alley
hub
##eal
heroes
Creative
##rible
incredible
politically
ESPN
yanked
halls
Aboriginal
Greatest
yield
Ind
congressional
robot
Kiss
welcomed
MS
speeds
proceed
Sherman
eased
Greene
Walsh
Geoffrey
variables
rocky
##print
acclaim
Reverend
Wonder
tonnes
recurring
Dawson
continent
finite
AP
continental
ID
facilitate
essays
Rafael
Neal
##^^
ancestors
##met
##gic
Especially
teenage
frustrated
Jules
cock
expense
##oli
rece
blocking
Notable
prohibited
##wise
dock
organize
##wald
Burma
Gloria
dimension
aftermath
choosing
Mickey
torpedo
pub
##aff
manuscripts
laps
Ulster
staircase
sphere
Insurance
Contest
lens
risks
investigations
ERA
glare
##play
Graduate
auction
Chronicle
tur
##50
Coming
seating
Wade
seeks
inland
Thames
Rather
butterfly
contracted
positioned
consumers
contestants
fragments
Yankees
Santos
administrator
hypothesis
retire
Denis
agreements
Winnipeg
##rill
IN
trophy
crap
shakes
Jenkins
##rium
ya
twist
labels
ris
##lings
##uth
111
##ensis
Cairo
Anything
##AL
opinions
crowded
##nian
abandon
##iff
drained
imported
##rr
tended
##rain
Going
introducing
sculptures
bankruptcy
danced
demonstration
stance
settings
##rop
abstract
pet
Calvin
stiff
strongest
wrestler
##dre
Republicans
grace
allocated
cursed
snail
advancing
Return
errors
Mall
presenting
eliminate
Amateur
##anna
counting
##wind
warehouse
##nde
Ethiopia
trailed
hollow
##press
Literary
capability
nursing
preceding
lamp
##orts
Morton
##ctic
Crew
Close
composers
boom
Clare
missiles
112
hunter
snap
##oni
##tail
Us
declaration
##cock
rally
huh
lion
straightened
Philippe
Sutton
alpha
valued
maker
navigation
detected
favorable
perception
Charter
##ña
Ricky
rebounds
tunnels
slapped
Emergency
supposedly
edit
deployment
socialist
tubes
anybody
corn
##NA
surpr
heating
pump
##AA
achieving
souls
##antly
Link
##ele
##smith
greeted
Bates
Americas
Elder
cure
contestant
240
fold
Runner
Uh
licked
Politics
committees
neighbors
fairy
Silva
Leipzig
tipped
correctly
exciting
electronics
foundations
cottage
governmental
##hat
allied
claws
presidency
cruel
Agreement
slender
accompanying
precisely
##pass
driveway
swim
Stand
crews
##mission
rely
everyday
Wings
demo
##hic
recreational
Con
nationality
##onald
Easter
##hole
canvas
Kay
Leicester
talented
Discovery
shells
##ech
Kerry
Ferguson
Leave
##place
altogether
adopt
butt
wolves
##Fan
##ania
modest
pract
Boris
##ouch
electron
depicts
hid
cruise
compl
treasure
##ails
Gun
Mama
Bengali
trainer
merchants
innovation
presumably
Shirley
bottles
proceeds
Fear
invested
Pirates
particle
Dominic
blamed
Fight
Daisy
##pper
Reddit
nods
knight
Doyle
tales
Carnegie
Evil
Inter
Shore
Nixon
transform
Savannah
##gas
Baltic
stretching
worlds
protocol
Percy
Toby
Heroes
brave
dancers
##aria
backwards
responses
Chi
Gaelic
Berry
crush
phys
promises
Madonna
researcher
realised
inaugurated
Cherry
##right
Nottingham
reinforced
subspecies
rapper
##kie
Dreams
##loy
Damon
Minneapolis
monsters
suspicion
Tel
surroundings
afterward
complaints
OF
sectors
Algeria
lanes
Sabha
objectives
Donna
bothered
distracted
deciding
Ob
##CA
##onia
bishops
Strange
machinery
anim
synthesis
reflects
interference
##raight
##ury
keen
##ances
frown
freestyle
cal
Dixon
Sacred
Ruby
Prison
##ión
multip
outfit
##tain
curiosity
temp
frames
steadily
emigrated
horizon
***
Doc
philosophical
Table
UTC
Marina
##DA
secular
##eed
Zimbabwe
cops
Mack
sheriff
Sanskrit
neg
catches
questioning
streaming
Kill
testimony
cre
tackle
countryside
copyright
##IP
Buddhism
##rator
ladder
##ading
Past
rookie
depths
##ibly
bott
##HS
Samantha
Dana
Educational
brows
Hammond
raids
envelope
##OL
##hart
##ulus
epic
detection
Streets
Potter
statistical
für
ni
accounting
##pot
employer
Sidney
Depression
commands
Tracks
averaged
lets
Ram
longtime
suits
branded
chip
Shield
loans
ought
Said
sip
##rome
requests
Vernon
?"
veterans
##ament
Marsh
.](
Pine
##igo
mills
anticipation
##St
##ef
expectations
protested
arrow
guessed
depot
maternal
weakness
##ailable
projected
pour
Carmen
provider
newer
remind
freed
##rily
##wal
##tones
intentions
Fiji
timing
Match
managers
Kosovo
Herman
Wesley
Chang
135
semifinals
shouting
Indo
Janeiro
Chess
Macedonia
Buck
##onies
rulers
Mail
##vas
Lol
MHz
Programme
Task
commercially
subtle
propaganda
spelled
bowling
awesome
Raven
honestly
Colony
109
##ingham
##wara
anticipated
comb
##iers
graduates
sever
##fication
endangered
ISO
diagnosed
weap
exercises
Battery
bolt
poison
cartoon
##ción
hood
bowed
heal
Meyer
Reagan
##wed
fem
##gent
momentum
infant
detect
##ades
Chapman
Darwin
mechanics
NSW
Cancer
Brooke
Nuclear
comprised
hire
sanctuary
wingspan
contrary
remembering
surprising
Basic
stealing
OS
hatred
##lled
masters
violation
Rule
tre
assuming
conquered
louder
robe
Beatles
legitimate
##vation
massacre
Rica
unsuccessfully
poets
##enberg
careers
doubled
premier
techn
Dubai
Paper
Louisville
compet
dressing
successive
mumbled
Vic
referee
pupil
deser
##aving
ceremonies
picks
bud
diplomat
alike
geographical
rays
##HA
##aste
harbour
factories
pastor
##UT
Ultimate
nationalist
uniforms
obtaining
kit
Amber
##pling
screenwriter
ancestry
##cott
Fields
PR
Coleman
rat
Bavaria
squeeze
highlighted
Adult
reflecting
Mel
dude
bicycle
organizing
sided
Previously
Underground
Prof
athletics
coupled
mortal
Hampton
worthy
immune
Ava
##gun
encouraging
simplified
##ssa
##nte
TO
Providence
entities
Pablo
Strong
Housing
##ista
priv
kidnapped
mosque
Kirk
whispers
fruits
shattered
fossil
Empress
Johns
Webster
Thing
refusing
differently
specimen
Ha
##oint
##rats
##elle
##night
Horn
neighbourhood
Bolivia
Ok
genres
Pre
##vich
Amelia
swallow
Tribune
Forever
Psychology
Use
los
##ively
ash
##usa
Monster
##cular
delegation
blowing
##tern
retreated
automobile
##ex
profits
shirts
devil
Treasury
##backs
Drums
Ronnie
gameplay
expertise
Evening
resides
Caesar
unity
Crazy
linking
Vision
donations
Isabel
valve
Sue
WWE
logical
availability
fitting
revolt
##mill
Linux
taxi
Access
pollution
statues
Augustus
##pen
cello
##some
lacking
##ati
Gwen
##aka
##ovich
dest
Wow
initiatives
Uruguay
Cain
stroked
examine
##vote
mentor
moist
disorders
buttons
##EE
##ustom
Species
Lynch
museums
scorer
Poor
eligibility
bene
unveiled
cats
Title
wheat
critically
Syracuse
##osis
marketed
enhance
Ryder
##NG
##aly
##ears
embedded
throws
foods
happily
##ami
lesson
formats
punched
##aged
expressions
qualities
imm
Gods
##vot
elect
wives
##lling
jungle
Toyota
reversed
Grammar
Cloud
Agnes
##iki
disputed
verses
Ag
threshold
##rea
scanned
##bled
##earch
##lice
Kazakhstan
Gardner
Freeman
##rz
inspection
Rita
accommodation
advances
chill
Elliot
thriller
Constantinople
##mos
debris
whoever
Fl
Santo
Carey
remnants
Guatemala
##irs
carriers
equations
mandatory
##WA
anxious
measurement
Summit
Terminal
Erin
##zes
LLC
##uo
glancing
sin
##ounds
Downtown
flowering
Euro
Leigh
Lance
warn
decent
recommendations
descri
Dis
BestFan
Clarence
colleague
guarantee
230
Clayton
Beast
addresses
prospect
destroyer
vegetables
Leadership
fatal
prints
190
##makers
Hyde
persuaded
illustrations
Southampton
Joyce
beats
editors
mount
##grave
Malaysian
Bombay
endorsed
##Trump
##bee
applying
Religion
",
bomber
Na
airfield
gravel
Check
Cave
bye
dig
decree
burden
Election
Hawk
Fe
##iled
reunited
App
liver
Teams
Put
delegates
Ella
smo
Cal
invention
Castro
bored
progr
##lect
Trinidad
NASCAR
pond
develops
##pton
expenses
Zoe
Released
AR
organs
beta
parameters
Neill
##lene
lateral
Beat
blades
Either
##hale
Mitch
##anger
##vous
Rod
burnt
phones
Rising
##front
investigating
##dent
Stephanie
##keeper
screening
##uro
Swan
Sinclair
modes
bullets
Nigerian
melody
##ques
Rifle
##12
128
##jin
charm
Venus
impro
fusion
advocated
visitor
pinned
genera
3000
Ferry
Solo
quantity
regained
platinum
shoots
narrowly
preceded
update
##ichi
equality
unaware
##SE
ally
##tos
transmitter
locks
Seeing
outlets
feast
reopened
En
struggles
Buddy
ST
bark
elegant
amused
Pretty
themed
schemes
Lisbon
##alent
patted
terrorism
Mystery
##croft
##imo
Madagascar
Journey
dealer
contacted
##quez
ITV
vacation
Wong
Sacramento
organisms
##pts
balcony
coloured
sheer
defines
MC
abortion
forbidden
accredited
Newfoundland
tendency
entrepreneur
Benny
Tanzania
needing
finalist
mythology
weakened
gown
sentences
Guest
websites
Tibetan
UFC
voluntary
annoyed
Welcome
appreci
correspondence
geometry
Deutsche
Biology
Help
##aya
Lines
Hector
##ael
reluctant
##ege
wears
inquiry
##dell
Holocaust
Tourism
Wei
volcanic
##mates
Visual
sorts
neighborhoods
Running
apple
shy
Laws
bend
Northeast
feminist
##conom
Murder
visa
stuffed
fangs
transmitted
fiscal
Ain
enlarged
##ndi
Cecil
Peterson
Benson
Bedford
acceptable
##CC
##wer
purely
triangle
foster
Alberto
educator
Highland
acute
LGBT
Tina
Mi
adventures
Davidson
Honda
translator
monk
enacted
summoned
diffic
collector
Genesis
##ift
liner
Di
##GE
##CS
filter
Knox
Religious
Stella
Estonian
Turn
ver
primitive
##18
##lles
complexity
autobiography
rigid
cannon
pursuing
exploring
##gram
mist
freshman
caves
Expedition
Traditional
iTunes
certification
cooling
pat
BestFanArmy
##ARMY
##aming
##VA
Motion
explosive
licence
boxer
shrine
loosely
##ews
Savage
Brett
MVP
heavier
##elli
##gged
Buddha
Easy
spells
fails
incredibly
Georg
stern
compatible
Perfect
applies
cognitive
excessive
nightmare
neighbor
Sicily
appealed
static
##oph
Aberdeen
##leigh
slipping
bride
##guard
Um
Clyde
##Donald
##ili
Hal
Frost
Sanders
interactive
Hour
##vor
hurting
##irt
termed
shelf
capturing
##pace
rolls
113
##bor
Chilean
teaches
##rey
benef
shipped
Twin
borrowed
##lift
Shit
##hot
Lindsay
Below
Kiev
Lin
leased
##sto
Eli
Diane
Val
##attle
shoe
Bolton
Dragons
##rification
Vatican
##pathy
Crisis
dramatically
talents
babies
##ores
surname
##AP
##cology
cubic
opted
Archer
sweep
tends
Karnataka
Judy
stint
Similar
##nut
explicitly
##nga
interact
Mae
portfolio
clinic
abbreviated
https
##iko
hearts
kinda
providers
screams
Individual
##etti
Monument
##iana
accessed
encounters
gasp
crit
defunct
Avery
##rne
nobility
useless
Phase
Vince
senator
##FL
##ential
surprisingly
##illo
##chin
Boyd
rumors
equity
Gone
Hearts
chassis
overnight
Trek
wrists
submit
civic
designers
##rity
prominence
decorative
derives
starter
##AF
wisdom
Powers
reluctantly
measurements
doctoral
Noel
Gideon
ce
Cologne
lawn
Hawaiian
anthology
##rov
Raiders
embassy
Sterling
##pal
Telugu
troubled
##FC
##bian
fountain
observe
ore
##uru
##gence
spelling
Border
grinning
sketch
Benedict
Xbox
dialects
readily
immigrant
Constitutional
aided
nevertheless
SE
tragedy
##ager
##ored
Flash
##MP
Europa
emissions
Pres
panties
Beverly
Homer
curtain
##oto
toilet
Isn
Jerome
Chiefs
Somet
supernatural
juice
integrity
Scots
auto
Patriots
Strategic
engaging
prosecution
cleaned
Byron
investments
adequate
vacuum
laughs
##inus
##emes
Usually
Roth
Cities
Brand
corpse
##ffy
Gas
rifles
Plains
sponsorship
Levi
tray
owed
della
commanders
##rug
tactical
##rion
Per
harbor
discharge
##hausen
gentleman
endless
highways
##itarian
pleaded
##eta
archive
Midnight
exceptions
instances
Gibraltar
cart
##NS
Darren
Bonnie
##vant
##iva
##onse
bra
Jess
bts
consulting
Archives
Chance
distances
commissioner
WH
LL
sailors
##sters
enthusiasm
Lang
##zia
##weets
confirm
possibilities
Suffolk
##eman
banner
epis
Supporting
fingertips
civilization
##gos
technically
##oof
Hastings
sidewalk
strained
monuments
Floyd
Chennai
Elvis
villagers
enc
mot
albeit
Believe
planets
combining
Mohammad
container
##mouth
##??
verb
BA
Tank
Midland
screened
Gang
Democracy
Helsinki
screens
##ilt
charitable
##version
swiftly
ma
rational
combine
##SS
##gest
dragging
Cliff
Tasmania
##anned
professionally
##bum
rap
##lion
livestock
##hua
informal
specially
lonely
Matthews
Dictionary
##aught
invol
correspondent
constitute
homeless
waving
appreciated
Analysis
Meeting
dagger
##imate
Gandhi
flank
Giant
Choir
##not
glimpse
toe
Writer
teasing
springs
##dt
Glory
healthcare
regulated
complaint
math
stat
makers
##hips
cement
Need
apologize
disputes
finishes
Partners
boring
ups
gains
bi
Congressional
clergy
Folk
##made
##verage
Waters
stays
encoded
spider
betrayed
Applied
inception
##urt
##zzo
wards
bells
UCLA
Worth
bombers
Mo
trademark
Piper
necess
incorporates
lt
?!
dim
Twelve
##word
Appeals
tighter
spacecraft
##orld
coordinates
##iac
mistakes
Zach
laptop
Teresa
##llar
##yr
favored
Nora
sophisticated
Irving
hammer
##fl
corporations
niece
Eng
Patterson
UNESCO
trafficking
Ming
balanced
plaque
Latvia
broader
##owed
Save
confined
##vable
Dalton
tide
##ources
##ural
##num
swords
caring
##oogle
IX
Acting
paved
##amer
launching
Antoine
substantially
Pride
click
grammar
Indoor
occ
enabling
114
##astic
Angelo
publicity
##ady
crawled
Maharashtra
Telegraph
lengthy
preference
differential
anonymous
Honey
##itation
wage
bur
Ser
Bryant
regulatory
Carr
##én
functioning
watches
##orth
shifts
diagnosis
Search
##ires
Peters
squ
##cat
Andreas
honours
temper
counsel
Urdu
Anniversary
maritime
##uka
harmony
clos
essence
Lorenzo
choked
Quarter
indie
AND
loses
##prints
amendment
Adolf
scenario
similarities
##rade
##LC
technological
metric
Russians
thoroughly
cred
cruiser
##duc
ur
##mpt
Teddy
##psy
au
progressed
exceptional
broadcaster
partnered
fitness
irregular
placement
mothers
unofficial
##iny
Johannes
YouT
regain
Solar
publishes
Gates
Broken
thirds
conversations
dive
Raj
contributor
quantities
Worcester
governance
##flow
generating
pretending
Belarus
##voy
radius
skating
Marathon
af
affection
BE
##wright
respons
##bro
locate
PS
excluded
recreation
tortured
jewelry
moaned
Follow
##cut
Complete
sidebar
117
##II
plantation
whipped
slower
crater
deb
Volunteer
attributes
celebrations
regards
Publishers
oath
utilized
Robbie
##aha
fiber
indication
melted
archives
Damien
jud
affecting
identifying
dances
alumni
comparable
upgrade
rented
sprint
##kle
Marty
##enn
treating
railways
Lebanese
erupted
occupy
sympathy
Jude
Darling
Qatar
drainage
McCarthy
heel
Klein
computing
wireless
flip
Du
Bella
##for
##ssen
narrator
tweet
sings
alignment
121
2020
securing
##rail
Progress
missionaries
brutal
mercy
sci
Hip
##ache
##olo
switching
##here
Malay
heav
constituted
Mohammed
Often
standings
surge
teachings
ink
detached
systematic
Trial
Myanmar
##wo
offs
Reyes
decoration
translations
wherever
reviewer
speculation
Bangkok
terminated
cir
beard
RCA
Aidan
Associated
Emerson
Charity
1803
generous
Dudley
ATP
##haven
prizes
toxic
gloves
##iles
##dos
Turning
myth
Parade
##building
Hits
##eva
teamed
Above
Duchess
Holt
dele
Sub
Ace
atomic
##lex
Ship
##oes
Jun
##bes
Norwich
globe
##😂😂
Christina
Cotton
Tunnel
kidding
employ
Brittany
tasted
phases
stems
angles
##TE
##nam
##40
charted
Alison
intensive
Willis
glory
##lit
Bergen
BTSARMY
taller
coun
labeled
##ido
commentator
Warrior
soci
shortened
aisle
Aria
Spike
spectators
goodbye
overlooking
mammals
##lude
wholly
Barrett
##gus
accompany
seventy
emot
##mb
ambitious
beloved
basket
##mma
!!!!
halted
descendant
pad
exclaimed
cloak
##pet
Strait
Bang
Aviv
sadness
##ffer
Donovan
##ott
agenda
swinging
##quin
jerk
Boat
##imin
nervously
Silence
Echo
shout
implies
##iser
##cking
Shiva
Weston
damages
econom
effectiveness
##xic
cycling
Rey
ache
Photography
PDF
Dear
leans
Lea
##vision
booth
attained
disbelief
dev
!"
Hop
pension
toys
Eurovision
faithful
##heads
Andre
owe
default
Atlas
Megan
highlights
lovers
Constantine
Sixth
masses
##angu
emerge
Auto
dumb
##oa
##vert
Superintendent
flicked
inventor
Chambers
Frankie
Romeo
pottery
companions
forg
##liers
diary
Unless
tap
alter
Randall
##ddle
##action
limitations
##boards
utterly
##though
guaranteed
Cowboys
##oor
horns
convers
Wendy
sexually
Smart
breasts
##cian
compromise
##uz
AT
Galaxy
analog
Style
##omin
weighed
Nigel
optional
Czechoslovakia
practicing
Ham
##0s
feedback
batted
uprising
operative
applicable
criminals
classrooms
Somehow
##iced
##medi
Naomi
Winchester
##pping
Bart
Regina
competitor
Recorded
Yuan
Vera
lust
##IL
##test
##11
1809
Lambert
175
Friend
##ppa
Slowly
##how
Wake
Dec
##aneous
chambers
Color
Gus
##ender
Alternative
##world
Exeter
Omaha
celebrities
striker
210
dwarf
meals
Oriental
Pearson
financing
revenues
underwater
Steele
screw
Feeling
Mt
acids
badge
swore
theaters
Moving
admired
lung
knot
penalties
116
fork
##cribed
Afghan
outskirts
Cambodia
oval
wool
fossils
Ned
memes
Darkness
delicious
##nica
Evelyn
Inst
guidelines
##CP
Sandra
meantime
Antarctica
modeling
granddaughter
##rial
Roma
Seventh
Sunshine
Gabe
##nton
Shop
Turks
prolific
soup
parody
PM
Judith
disciplines
resign
Companies
Libya
Jets
inserted
Mile
retrieve
filmmaker
##rand
realistic
unhappy
##30
##reed
##nas
##lent
conv
##rous
Brent
trash
Rescue
##unted
Autumn
disgust
flexible
infinite
sideways
##itten
##vik
trailing
disturbed
50th
Newark
bal
##rol
Schmidt
Josef
##eous
determining
menu
Pole
Anita
Luc
peaks
118
Yard
warrant
generic
deserted
Walking
stamp
tracked
##berger
paired
surveyed
sued
Rainbow
##isk
Carpenter
submarines
realization
touches
sweeping
Fritz
module
Whether
resembles
Mc
##lop
unsure
hunters
ON
unemployment
Senators
Georgetown
##onic
Barker
foul
commercials
Dresden
Words
collision
Carlton
Fashion
doubted
##ril
precision
MIT
Jacobs
mob
Monk
retaining
gotta
##rod
remake
Fast
chips
##pled
sufficiently
##lights
delivering
##enburg
Dancing
Barton
Officers
metals
##lake
religions
##ré
motivated
differs
wanna
##birds
##uly
Priest
polished
##aling
##Ch
Wyatt
knockout
##hor
Lopez
RNA
##link
metallic
##kas
daylight
Montenegro
##lining
wrapping
resemble
Jam
Viking
uncertainty
angels
enables
##fy
##DonaldTrump
tricks
tattoo
127
wicked
asset
breach
tar
MW
breaths
Jung
##memes
PL
noon
vowel
##qua
calmly
seasonal
chat
ingredients
cooled
Randolph
ensuring
##enty
##idal
flashing
wiki
Macedonian
Cool
councils
##lick
advantages
Immediately
##ivid
Democ
Pain
fancy
chronic
##iod
begged
##nese
Inner
feathers
##vey
Names
dedication
Sing
pan
Fischer
nurses
Sharp
inning
stamps
Meg
##ello
edged
unl
Jacksonville
##ption
RE
##US
divide
garnered
Ranking
chasing
modifications
incred
clever
midst
flushed
##DP
void
flair
ambulance
beaches
groan
isolation
strengthen
prevention
##ffs
Scouts
reformed
geographic
squadrons
Fiona
Kai
Consequently
Gl
overtime
##yas
Sm
##BL
##irm
Mixed
glances
Haiti
Sporting
sandy
confronted
atte
Tanner
ir
##IM
advisory
trim
##ibe
realDonaldTrump
gambling
Jupiter
info
##owski
##nar
122
apology
teased
Pool
feminine
wicket
eagle
shiny
##VER
blend
peaking
nasty
nodding
fraction
##ext
Noble
Kuwait
brushing
Italia
Canberra
duet
Johan
NE
Written
cameo
Stalin
pig
cord
##zio
Surely
SA
owing
holidays
123
Ranger
lighthouse
##ige
miners
1804
##itted
##gren
##bl
crashing
##atory
wartime
highlight
inclined
Torres
Tax
##zel
##chan
Own
##corn
Divine
EMI
Relief
Northwestern
ethics
BMW
##ended
plasma
Christie
coordinator
Shepherd
washing
cooked
##dio
##eat
SO
algebra
Engine
costumes
Vampire
vault
ther
virtue
assumption
##rell
Toledo
##oting
##ength
crept
emphasized
##IG
##ressed
Greeks
surgical
crest
Patrol
Beta
Tessa
##GS
pizza
traits
rats
Iris
spray
##GC
Lightning
binary
escapes
Try
##oles
crowds
Sw
hauled
maid
##fen
Manning
##yang
Nielsen
aesthetic
sympathetic
affiliation
soaked
Mozart
personalities
begging
##iga
clip
Raphael
yearly
Lima
abundant
##lm
Joh
strips
Initiative
reporters
##ION
consolidated
##itated
Civic
rankings
mandate
symbolic
trave
Ste
rental
duck
nave
complications
##nor
Irene
Nazis
haunted
scholarly
Pratt
Gran
Embassy
Wave
pity
genius
bats
ste
Tropical
marker
##cos
escorted
Climate
##posed
appreciation
freezing
puzzle
Internal
pools
Shawn
pathway
Daniels
Fitzgerald
extant
olive
Vanessa
marriages
cocked
enem
prone
chemicals
doll
drawer
##HF
Stark
Property
Sn
flowed
Sheridan
##uated
Less
Omar
remarks
catalogue
Seymour
wreck
Carrie
##bby
Mercer
displaced
sovereignty
rip
Flynn
Archie
ident
Hassan
##oooo
vein
Osaka
pouring
wages
Romance
##cript
##phere
550
##eil
##stown
Documentary
ancestor
CNN
Panthers
publishers
Rise
##mu
biting
Bright
String
succeeding
119
loaned
Warwick
Sheikh
Von
Afterwards
Jax
Camden
helicopters
Hence
Laurel
##ddy
transaction
Corp
clause
##owing
##kel
Investment
cups
Lucia
Moss
Giles
chef
behav
decisive
30th
distress
linguistic
surveys
Ready
maiden
Touch
frontier
incorporate
exotic
Har
Leopold
Ride
##clus
##ndo
teammates
tones
drift
ordering
Feb
Penny
Normandy
Present
Flag
pipes
:**
delight
motto
Tibet
leap
Eliza
Produced
teenagers
sitcom
##iet
Hansen
Cody
wandered
terrestrial
frog
scare
resisted
employers
coined
##DS
resistant
Fly
captive
dissolution
judged
associates
defining
##court
Hale
##kend
raises
clusters
##ression
##aur
Roads
##itude
satisfy
Android
Reds
immedi
Category
Valencia
Daemon
stabbed
Luna
Churches
Canton
##eller
Attack
Kashmir
annexed
grabs
asteroid
Hartford
recommendation
Rodriguez
handing
stressed
frequencies
delegate
Bones
Erie
Weber
Hands
Acts
wel
24th
Fat
Howe
casually
##SL
relig
stri
IF
##ledge
Eur
yelling
##ises
drain
addressing
amino
Marcel
Sylvia
Paramount
Gerard
Volleyball
butter
124
Albion
##GB
triggered
##raft
folding
accepts
##ße
preparations
Wimbledon
dose
##grass
escaping
##oul
lear
charging
dankmemes
280
Nolan
##fried
div
##pool
Cove
examining
minded
heartbeat
twisting
domains
bush
Tunisia
Purple
Leone
##code
evacuated
battlefield
tiger
Electrical
minim
chased
##cre
cultivated
Jet
solved
shrug
ringing
Impact
##iant
becom
##log
commemorate
migrated
singular
designing
promptly
Higgins
polic
##aves
freshwater
Marketing
Payne
beg
locker
pray
implied
AAA
corrected
Trans
Europeans
Ashe
acknowledge
Introduction
##writer
##llen
Munster
auxiliary
growl
Hours
Poems
##The
reduces
Plain
plague
canceled
detention
polite
necklace
Gustav
suff
##lance
Ret
Angola
##bb
dwelling
##hea
5000
Qing
Dodgers
rim
tick
##haus
spilled
chall
Viktor
backpack
1802
amended
##worthy
Phantom
##ctive
keeper
##loom
Vikings
##gua
employs
Tehran
specialty
##bate
Marx
Mirror
Jenna
rides
needle
prayers
clarinet
##arely
##walk
Midlands
convincing
advocacy
Cao
Birds
cycles
Clement
Gil
bubble
Maximum
humanitarian
Tan
cries
##SI
Parsons
Trio
offshore
Innovation
illeg
260
##mund
##duct
Prairie
relied
Falcon
##ste
Kolkata
Gill
Swift
Negro
Zoo
valleys
langu
Opening
beams
MPs
outline
Bermuda
Personal
exceed
productive
##MT
republic
forum
##sty
tornado
Known
dipped
Edith
folks
mathematician
watershed
Ricardo
synthetic
##iring
deity
tomor
gaming
subjected
suspects
Foot
swollen
Motors
##ples
##AK
aloud
ceremonial
ener
nuts
intend
Carlisle
tasked
hesitation
sponsors
unified
inmates
##ctions
##stan
tiles
jokes
whereby
outcomes
Lights
scary
Stoke
Portrait
Blind
sergeant
violations
cultivation
!](
Mister
Alfonso
candy
sticks
teen
agony
Enough
invite
Perkins
Appeal
mapping
undergo
Glacier
Melanie
affects
incomplete
Ask
Colombian
##ortun
CBC
purchasing
bypass
Drug
Electronics
Frontier
Coventry
##aan
autonomy
scrambled
Recent
bounced
cow
experiencing
Rouge
cuisine
Elite
disability
Ji
inheritance
wildly
Into
##wig
confrontation
Wheeler
shiver
Performing
aligned
consequently
Alexis
Sin
woodland
executives
Stevenson
Ferrari
inevitable
##dition
^(
##base
Corner
comeback
##asing
##eck
##urus
MacDonald
pioneering
breakdown
landscapes
Veterans
Rican
##iday
stirred
participant
Credit
Hyderabad
snails
Claudia
separ
compliance
##MI
Flags
##icul
storms
winding
asserted
##rugg
individ
##kal
waking
##rates
##oop
Augusta
tooth
##eral
Commodore
##uded
Cunningham
NC
Witch
marching
Sword
Same
spiral
Harley
##ahan
Zack
Audio
##aul
##fit
Simmons
Kara
Veronica
negotiated
Speaking
##CH
##using
formations
constituencies
explicit
facial
profess
meme
villain
##dog
##case
##hol
armored
tin
hairs
##umi
##rai
mattress
Angus
cease
verbal
Recreation
savings
Aurora
peers
##oil
##apan
drowned
additions
downstream
sticking
Shi
mice
skiing
##CD
Raw
Riverside
warming
hooked
boost
memorable
posed
treatments
320
annoy
celebrating
blink
helpless
circa
Flowers
##uses
uncommon
Oct
Hawks
overwhelmed
##shit
repaired
Mercy
pose
counterpart
compare
survives
##ask
##arily
coordinate
Lil
grandchildren
notorious
Yi
Judaism
Juliet
accusations
##oly
floated
marathon
roar
fortified
reunion
145
Nov
Paula
##fare
##omb
tearing
Cedar
disappearance
Si
gifted
scar
270
PBS
Technologies
Marvin
650
roller
educ
negotiate
##erman
passport
tram
miracle
styled
surv
necessity
Des
rehabilitation
Lara
USD
psychic
wipe
##lem
mistaken
##lov
charming
Rider
pageant
dynamics
Cassidy
##icus
defenses
mur
natur
aging
subs
declare
mistress
supervised
##alis
##rest
Ashton
submerged
sack
Dodge
grocery
ramp
Teacher
lineage
imagery
arrange
Tod
Organisation
Siege
combines
pounded
aud
legends
columnist
##urity
prose
insight
Arabian
expired
compan
##nos
Alone
elbows
##asis
##adi
##combe
Step
Waterloo
Alternate
interval
Sonny
plains
Goals
incorporating
recruit
spam
Cheshire
excluding
marrying
ducked
Cherokee
ess
##inate
hiking
Coal
##bow
natives
ribbon
Allies
Es
descriptions
positively
##lal
defendant
22nd
Vivian
##beat
Weather
possessions
Date
sweetheart
inability
Salisbury
adviser
ideology
Nordic
##eu
Cubs
IP
Administrative
##nick
facto
liberation
Burnett
Javier
fashioned
Electoral
Turin
theft
unanimous
purp
##agon
Clan
Hawkins
Teachers
##wes
Cameroon
Parkway
##gment
demolition
atoms
nucleus
##thi
recovering
##yte
##amed
lifts
Must
deposit
Hancock
Semi
darkened
Declaration
moan
muscular
Myers
attractions
sauce
simulation
##weed
Alps
barriers
##baum
Barack
galleries
Min
holders
Greenwich
donation
Everybody
Wolfgang
sandwich
Kendra
webs
casino
Slavic
ensuing
Porto
Def
##apt
suppressed
tires
Ibrahim
protesters
Ibn
Amos
???
phenomena
Hayden
Paraguay
Squad
Reilly
complement
aluminum
##eers
doubts
decay
demise
Practice
patience
fireplace
transparent
monarchy
##person
Rodney
mattered
rotating
Clifford
disposal
Standards
paced
##llie
arise
tallest
tug
documentation
node
freeway
max
transcri
clicked
imaging
Lorraine
Tactical
Different
Regular
Holding
165
Pilot
guarded
deg
Classics
Mongolia
Brock
monarch
cellular
receptors
Mini
Chandler
financed
financially
Lives
erection
Fuller
unnamed
##osh
cc
passive
plateau
##arity
freak
##rde
retrieved
transactions
##reet
23rd
swimmer
beef
fulfill
Arlington
offspring
reasoning
Rhys
saves
pseudonym
centimetres
##____
shuddered
##ME
Feel
##otic
professors
Blackburn
nar
##life
##haw
particip
lodge
fragile
.…
guardian
##CK
catalog
clad
observer
tract
declaring
##headed
Lok
dean
Isabelle
1776
irrigation
spectacular
shuttle
mastering
##aro
Nathaniel
Retired
wer
Brennan
infl
dick
redu
##hler
Rookie
leapt
televised
weekends
Baghdad
Yemen
##fo
factions
ion
Lab
mortality
passionate
Hammer
encompasses
disag
demonstrations
Ki
derivative
rad
sus
Ranch
Universities
conventions
outright
aiming
hierarchy
reside
illusion
graves
rituals
126
Antwerp
Dover
##ema
campuses
##aced
lifelong
aliens
##vity
Memory
coordination
alphabet
##mina
Titans
pushes
Flanders
##holder
Normal
excellence
capped
profound
Taipei
portrayal
sparked
scratch
##CT
Ger
##hir
Mackenzie
##cation
Neo
Shin
##lined
magnificent
poster
batsman
##oring
persuade
##ement
Icelandic
miserable
collegiate
Feature
geography
Mess
Comic
Circus
processor
barracks
Tale
##iction
Bulls
##rap
strengthened
##bell
injection
miniature
broadly
Letter
fare
hostage
traders
Ab
##mere
Fortune
Rivera
Lu
triumph
Browns
Bangalore
cooperative
Basel
announcing
Sawyer
##him
##cco
##kara
Sen
##AD
##nova
sucking
fant
perimeter
flung
Holdings
##NP
Basque
sketches
Augustine
Silk
Elijah
analyst
armour
riots
acquiring
ghosts
##ems
132
Pioneer
Colleges
Simone
Economy
Author
semester
Soldier
il
##unting
##bid
freaking
Vista
tumor
##bat
murderer
##eda
unreleased
##grove
##entially
liber
##asc
statute
sovereign
##EXO
Killer
stares
Fury
comply
##lord
##nant
barrels
Andhra
Maple
generator
mascot
unusually
eds
##ante
##runner
rod
##tles
Historically
Jennings
dumped
vict
resemblance
boo
##cise
Id
Bre
Lydia
##hou
SH
nonetheless
sil
corrupt
patrons
physicist
sneak
Livingston
Citizens
Architects
Werner
trends
Melody
eighty
markings
brakes
##iot
oversaw
processed
mock
Midwest
intervals
##EF
stretches
werewolf
##MG
Pack
controller
hus
strugg
cane
Griffith
vague
repertoire
Courtney
orgasm
Abdullah
dominance
occupies
Ya
introduces
Lester
instinct
collaborative
Indigenous
refusal
##rank
outlet
debts
spear
155
##keeping
##ulu
Catalan
##eter
tensions
##sych
bred
crude
Dunn
abdomen
accurately
##fu
##lough
accidents
Row
Audrey
rude
Getting
promotes
replies
Paolo
merge
##amn
##itary
Evangelical
automated
Canon
##wear
##ggy
##ived
Broncos
foolish
icy
Voices
knives
Aside
dreamed
generals
molecule
AG
rejection
insufficient
##ourn
deposited
sacked
Landing
arches
helpful
devotion
intake
Flower
PGA
dragons
evolutionary
##mail
330
GM
tissues
##tree
arcade
composite
lid
Across
implications
lacks
theological
assessed
concentrations
Den
##mans
##ulous
Fu
homeland
##stream
Harriet
Spe
troop
ecological
activ
##xed
##aching
Casino
specializing
##sworth
unlocked
supreme
devastated
snatched
trauma
GDP
Nord
saddle
Wes
convenient
competes
##nu
##ogn
Marian
subway
har
successes
umbrella
##far
##LE
Dundee
##cence
spark
##rix
##raph
Quality
Sch
cockpit
rpm
Cam
Bucharest
riot
##PM
Leah
##dad
##pose
Ka
:/
Bundesliga
Wolfe
grim
textile
##inn
expressing
fantastic
destroyers
eternal
picnic
##oro
contractor
##rif
spanning
declining
##eb
Lowe
Sutherland
Emirates
downward
nineteen
violently
scout
viral
melting
enterprises
racist
Crosby
Jubilee
antenna
urgent
Rory
##uin
Bu
wandering
##lying
##vent
Suzuki
Lifetime
Dirty
occupying
##quent
Disc
Guru
mound
Lennon
##ience
listeners
Walton
uh
Braves
##gend
##bis
##gra
Dwight
crawl
flags
memoir
##iliar
destro
dairy
##haps
##tery
##ulations
adjust
patches
inn
Knowing
Honest
##zan
scan
Papa
precipitation
angrily
passages
postal
Phi
embraced
blacks
economist
triangular
desp
shooter
punished
Millennium
Swimming
confessed
Aston
defeats
Era
cousins
Williamson
##rer
daytime
tho
##rek
underway
specification
Buchanan
prayed
concealed
activation
##issa
canon
pers
Starr
plural
summers
##fields
Slam
unnecessary
##rodu
resume
trilogy
compression
##rough
selective
dignity
Yan
##xton
immense
##yun
lone
seeded
hiatus
lightweight
summary
Yo
approve
Galway
FAQ
Elise
garbage
burns
speeches
129
Honduras
##liness
inventory
jersey
FK
assure
lat
Lionel
Suite
opportun
Lena
continuation
##rom
brightly
##ILL
GT
Knowledge
##park
##lius
lethal
plat
ang
Certificate
Mara
Mod
algorithms
Jade
blows
pirates
fleeing
wheelchair
Stein
sophomore
Alt
Sec
diploma
snakes
##olic
##tham
Tiffany
##ij
flush
urging
ARMY
Reich
##olate
Unity
Pike
collectively
Theme
ballad
kindergarten
rocked
zoo
##page
whip
##iment
strokes
checks
Becky
Stern
upstream
##uta
Silent
volunteered
Sigma
##ingen
##illy
##ede
Gujarat
screwed
entertaining
##amb
##ryn
defenders
innocence
lesbian
##ording
Richie
nodes
Lie
juvenile
Jakarta
safer
confront
Bert
breakthrough
gospel
Cable
##zie
institutional
Archive
brake
liquor
feeds
##iate
chancellor
Cont
Animation
scanning
teens
##mother
Core
Rear
Wine
##flower
reactor
Ave
cardinal
sodium
strands
Olivier
crouched
Vaughan
Sammy
Image
scars
Emmanuel
flour
bias
nipple
revelation
##ucci
Denny
##ssy
Form
Runners
admits
Rama
violated
Burmese
feud
underwear
Mohamed
Named
swift
statewide
Door
Recently
comparing
Hundred
##idge
##nity
##rds
Rally
cant
Auburn
solving
waitress
MES
##esterday
Halloween
Ministers
Boss
Shut
##resent
disapp
demonstrating
##pies
Gaza
Yuri
installations
Math
schooling
##bble
Bronx
exiled
gasoline
133
bundle
humid
FCC
proportional
relate
##arently
##--------
continuity
##cene
ult
atmospheric
arrows
fa
reinforcements
Willow
Lexington
Rotten
##yon
discovering
Serena
portable
##just
targeting
##urch
Goodman
Steam
sensors
detachment
Malik
##erie
attitudes
Goes
Kendall
Read
Sleep
beans
Nikki
modification
Jeanne
knuckles
Eleven
##lebr
Gross
Jaime
dioxide
moisture
Stones
deli
displacement
Metacritic
Jury
lace
rendering
elephant
Sergei
##quire
GP
Abbott
##type
projection
Mouse
Res
whispering
Kathleen
Rams
##jar
whites
##oran
assess
dispatched
##hire
kin
##mir
Nursing
advocates
tremendous
sweater
assisting
##bil
Farmer
prominently
reddish
Hague
cyclone
##SD
Sage
Lawson
Sanctuary
discharged
retains
##ume
shotgun
wilderness
Reformed
similarity
Entry
Watts
Bahá
Quest
Looks
visions
Pol
Arabs
curls
Blu
dripping
accomplish
cy
drill
sensor
Dillon
physicians
smashed
##dir
painters
Renault
straw
fading
##UN
lounge
commissions
Brain
##graph
neo
##urg
plug
coordinated
##houses
Critical
lamps
illustrator
Returning
erosion
Crow
##ciation
blessing
Thought
Wife
medalist
##mao
Pam
Thornton
Esther
HBO
fond
Associates
##raz
pirate
permits
Wide
tire
##PC
Ernie
disagree
transferring
RFC
oppos
um
spit
AS
##mps
Mining
polar
villa
anchored
##zzi
embarrassment
relates
Sim
Rupert
counterparts
131
Baxter
##esus
Igor
recognizes
Clive
##hane
##eries
bullshit
occurrence
##iding
MESSA
colorful
Rapids
banker
tile
##rative
##IR
delays
destinations
##llis
Pond
Dane
grandparents
rewarded
socially
motorway
##hof
##a_
##human
modeled
Dayton
Forward
conscience
Sharma
whistle
Mayer
Sasha
##pical
circuits
Zhou
##ça
Ro
finalists
predators
Lafayette
closes
obligations
Resolution
##vier
Mich
reminiscent
##hos
Highlands
Protected
asylum
evacuation
scen
Chevrolet
confession
Somalia
emergence
separating
##rica
alright
calcium
Laurent
Welfare
Leonardo
ashes
dental
Deal
minerals
^^^^
##mount
accounted
staggered
slogan
photographic
builder
campa
##now
tragic
144
SEC
Hit
tailed
##eech
obs
##omen
ethical
wrestlers
concludes
lunar
prim
nitrogen
Aid
cyclist
##annel
##ending
harvest
##hem
##WE
IL
##mis
continually
##forth
Intel
bucket
##eme
witches
pretended
dresses
viewer
peculiar
lowering
volcano
Marilyn
Par
##put
##LY
Cut
modules
Bowie
Honestly
onset
transcription
residences
##pie
##itor
scrapped
##bic
Monaco
Mayo
eternity
Strike
uncovered
skeleton
sens
Isles
bug
mach
##rush
Mechanical
XII
##ivo
gripping
stubborn
velvet
TD
##ucks
##ivil
spatial
unstable
Congressman
wasted
##aga
Ap
advertisements
##nya
obliged
Cannes
Conway
bricks
haha
IM
mer
jumps
Clear
gar
##sche
chord
utter
##80
podium
spokesman
Royce
assassin
confirmation
licensing
liberty
##rata
Geographic
individually
detained
##ffe
Saturn
crushing
airplane
bushes
knights
##PD
Lilly
hurts
unexpectedly
Conservatives
pumping
Forty
candle
MESSAGE
peasants
supplement
Sundays
##ggs
signific
risen
enthusiastic
corresponds
pending
##IF
Owens
floods
Painter
inflation
presumed
shitty
Chamberlain
bizarre
1200
liability
reacted
tub
Legacy
##eds
##pted
shone
##yond
##NC
Tiny
genome
bays
Eduardo
robbery
stall
hatch
Depot
Variety
Flora
reprinted
##TH
outlined
CR
Theresa
spans
vac
Jensen
AL
env
##iculous
pays
##....
Marcos
fortifications
inferior
unf
Devi
despair
Talbot
##chus
updates
ego
Booth
Darius
tops
##lau
Scene
##DC
Harlem
Trey
Generally
candles
ach
Neville
##azon
indust
iconic
victorious
1600
Rowan
abundance
miniseries
clutching
sanctioned
##words
obscure
meth
❤️
##EM
disappearing
Resort
Obviously
repe
exceeded
purch
Adults
##cts
Cry
Kerr
ragged
selfish
##lson
circled
pillars
galaxy
##asco
##mental
rebuild
caution
Resistance
Start
bind
splitting
Baba
Hogan
ps
partnerships
slam
Peggy
courthouse
##OD
organizational
packages
Angie
##nds
possesses
##rp
pun
Gould
Terror
Him
Geoff
nobles
trou
shark
##nh
identifies
ut
testified
Playing
assh
##isa
stool
Idol
##pice
##olution
Byrne
Gerry
##cell
26th
observing
habits
privilege
immortal
wagons
##thy
dot
Bring
##aughter
##witz
newest
##uga
constraints
Screen
Issue
ru
##vil
reminder
##gles
addiction
piercing
stunning
var
##rita
Signal
accumulated
##wide
float
devastating
viable
cartoons
Uttar
flared
##encies
##ales
patents
trad
privileges
##ava
##CO
137
##oped
##NT
orchestral
medication
225
erect
Nadia
mater
fried
Sales
scripts
##ularly
airs
Cage
inadequate
structured
countless
Avengers
Kathy
disguise
mirrors
Investigation
reservation
##nson
Legends
humorous
Mona
decorations
attachment
Via
motivation
Browne
strangers
##ym
Shadows
Twins
##pressed
Alma
legit
##Sh
Sergio
canopy
152
camer
devised
##irk
upwards
Traffic
Goddess
Move
beetles
138
spat
##anne
holdings
##SP
tangled
Whilst
Fowler
anthem
rout
##ogy
Mon
moonlight
songwriting
tolerance
Worlds
exams
Comm
notices
sensitivity
poetic
Stephens
Boone
insect
##19
Fresh
27th
balloon
##ables
Brendan
mug
##gee
announ
apex
exports
slides
Lahore
hiring
Shell
electorate
sexuality
poker
nonprofit
##ropri
cone
##uce
Okinawa
superintendent
##HC
referenced
turret
Sprint
Citizen
equilibrium
Stafford
curb
Driver
Valerie
comput
aching
impacts
##bol
observers
Downs
Shri
vari
airports
##uda
assignments
curtains
solitary
icon
patrols
substances
Jasper
mountainous
Published
fac
##ingly
announce
dove
damaging
Cr
sucks
Dexter
limiting
batch
##uli
undergoing
refugee
Ye
admiral
pavement
##WR
##miss
pipeline
desires
Ramsey
Sheila
thickness
Brotherhood
Tea
instituted
Belt
Break
plots
##ais
masculine
Af
Theo
immig
Sy
Experience
scratched
Ethiopian
Teaching
##nov
Aiden
Abe
Samoa
conditioning
##obal
Otherwise
fade
##UST
##encing
Nat
##lain
Anyone
##kis
smirk
Riding
psych
##uel
blessed
potatoes
Hook
ME
likewise
hardened
Merry
amid
persecution
##sten
Elections
Hoffman
Pitt
##vering
distraction
exploitation
infamous
quote
averaging
healed
Rhythm
Germanic
Mormon
illuminated
guides
##ische
interfere
fol
##ipping
perennial
##ival
Everett
courtesy
CH
Kirby
Mk
##vic
Medieval
##tale
Luigi
limp
”.
Alive
greeting
shove
##force
##fly
Jasmine
Bend
Capt
Suzanne
ditch
134
contrib
Host
fathers
rebuilding
Vocal
wires
##manship
tan
Factor
fixture
##LS
hom
Plate
pyramid
##umble
slap
Schneider
yell
##ulture
Aust
Goodbye
sore
##pher
depressed
##avid
pitching
Find
Lotus
##wang
strand
Teen
debates
prevalent
Aw
exposing
hears
billed
Bet
##urance
compelled
disturbing
displaying
##mg
Clinical
emotionally
##iah
Person
grouped
##quel
Bahrain
Journalism
cand
persistent
blankets
Crane
camping
Direct
proving
Lola
stats
Corporate
birthplace
##boats
cas
Figure
dared
Assam
precursor
##ceed
Tribe
Restoration
slate
rev
hunted
stroking
Earlier
Kind
polls
appeals
monetary
##reate
Kira
##uc
explores
GPS
extensions
squares
Results
draped
announcer
merit
##ennial
oper
##roved
##cion
robots
supervisor
snorted
##group
Cannon
procession
monkey
freeze
sleeves
Nile
verdict
ropes
firearms
extraction
##ivers
EC
Saunders
##aker
diamonds
Marriage
##amble
curling
Amazing
##ORE
unrelated
##roads
Daughter
cum
discarded
kidney
cliffs
##inc
Candy
##lap
authentic
tablet
notation
##asy
Bulldogs
Callum
Meet
mouths
coated
##xe
Truman
combinations
##enge
Steelers
Fan
Than
paternal
##father
##uti
Rebellion
inviting
Fun
theatres
fucked
cit
curator
##cision
networking
Oz
drought
##fs
granting
MBA
Shelby
Elaine
jealousy
Kyoto
shores
signaling
tenants
debated
Intermediate
Wise
##hes
##pu
Havana
duke
vicious
exited
servers
Nonetheless
Reports
explode
##beth
Nationals
offerings
Oval
##iron
REA
folklore
##NR
Shire
planting
mechan
Zeus
accelerated
##ilities
consuming
troubles
McCartney
texture
bust
Immigration
upgr
hopefully
##cession
##coe
##name
##awn
lining
Einstein
Venezuelan
##unn
minorities
Beatrice
crystals
##nies
circus
lava
Vote
extinction
prep
Becker
##uke
issuing
Zurich
extract
##esta
?”
regulate
progression
hut
alcoholic
plea
AB
Norse
##acher
Mansfield
ashamed
##!!!!
##rig
stripes
electrons
Denise
horrified
Nor
circ
Hay
Koch
init
##iner
Birthday
Josie
deliberate
explorer
##jiang
##anch
Arrow
wiping
satellites
##lement
mobility
##rals
Dorset
turbine
Coffee
185
##lder
Cara
Colts
pits
Crossing
coral
##birth
Tai
zombie
smoothly
##hp
mates
thats
##edic
ple
puzzled
tapes
overly
Sonic
Prayer
Thinking
##uf
##asure
obligation
##cliffe
Basil
fal
celebr
nostrils
Barney
XIII
##phones
vacated
unused
Berg
##roid
Towards
viola
136
Event
Wel
rabbit
recruiting
Win
##ieve
##16
##ilation
recruits
Famous
intern
##hari
Goa
##lat
Karachi
haul
biblical
##cible
MGM
##arts
horsepower
profitable
Grandma
importantly
Martinez
incoming
##kill
beneficial
nominal
praying
##isch
FB
nail
noises
nu
recogn
rub
##cope
Thor
audition
erotic
troll
##iano
Ultimately
armoured
##mum
presently
pedestrian
LI
Ipswich
offence
je
##borne
Flemish
##hman
echo
democ
auditorium
gentlemen
winged
##Day
Nicaragua
Unknown
prosperity
exhaust
install
Peruvian
compartment
heights
disabilities
##pole
Harding
Humphrey
postponed
moths
accur
Mets
posters
axe
##nett
Nights
Typically
chuckle
##eek
alternating
141
Norris
##por
##etus
deficit
dreaming
cooler
oppose
Beethoven
##esis
Marquis
flashlight
headache
investor
responding
appointments
##shore
Elias
ideals
shades
torch
lingering
##real
pier
fertile
bon
currents
Snake
##horse
##15
Briggs
##ota
##Of
mus
Coastal
Kuala
ankles
Rae
slice
Hilton
locking
Approximately
Workshop
Niagara
strangely
##pir
functionality
advertisement
Rapid
Anders
ho
Soviets
packing
basal
Sunderland
Permanent
##fting
rack
tying
Lowell
complain
Wizard
mighty
tertiary
pencil
dismissal
torso
grasped
##yy
Sand
gossip
##nae
Beer
implementing
HA
##riya
Fork
Bee
##eria
NO
##cid
sailor
pressures
##oping
speculated
Freddie
originating
##DF
##SR
inj
28th
melt
Brenda
lump
Burlington
USC
marginal
##bine
Dogs
swamp
cu
##ims
uranium
metro
spill
##aven
seize
Chorus
partition
##dock
##media
engineered
##oria
conclusions
subdivision
##uid
Illustrated
Leading
##hora
Berkshire
definite
##books
##cin
##ateg
noun
anx
Doris
dissertation
Wilderness
##quest
##ossible
arbitrary
kidnapping
Kurdish
##but
clearance
uns
Fin
##arant
insult
presided
yacht
##SM
Honour
Tin
attracting
explosives
Gore
Bride
##aked
Packers
Devils
Observer
##course
Loser
##erry
##hardt
##osp
##News
undefeated
##stra
subordinate
offic
Wigan
compulsory
Pauline
Cruise
Opposition
##ods
Period
dispersed
expose
##60
##has
Certain
Clerk
Wolves
~~
apparatus
allegiance
orbital
justified
thanked
\*
Biblical
Carolyn
Graves
Reg
Hercules
backgrounds
replica
investig
aquatic
Mega
Stirling
obstacles
filing
Founder
vowels
Deborah
Rotterdam
surpassed
thous
##ologists
Zambia
Ren
Olga
Alpine
##anced
councillor
Oaks
Animals
eliminating
digit
Managing
deter
laundry
spl
presses
slamming
Tudor
thief
posterior
##bas
Rodgers
smells
##ining
Hole
SUV
trombone
numbering
representations
ALL
Paralympics
cartridge
##rash
Combined
shelves
din
revision
##frame
Sánchez
##orge
##bler
Cor
##enced
sic
trousers
Gibbs
anterior
symmetry
vaguely
Castile
IRA
resembling
Penguin
##ulent
infections
##stant
raped
lif
worrying
brains
bending
JR
Evidence
##alyt
complexes
Jonah
850
exported
Ambrose
Gap
##bh
##atus
Marxist
weighing
##KO
grad
Soldiers
chiefs
reject
repeating
shaky
submissions
preserving
rob
cigarettes
##break
mortar
##fin
Already
reproduction
socks
Waiting
amazed
##aca
dash
##path
Airborne
##ords
##ograph
descending
DM
Sant
Tess
Lucius
enjoys
sem
##ivation
##ete
piss
Phillies
execute
geological
unfinished
Courts
SP
Beaver
Duck
motions
Platinum
friction
##aud
##bet
Parts
##_S
entirety
##2018
Smithsonian
coffin
prolonged
serv
##ipped
unanimously
##uchi
Cars
Cassandra
Australians
##erc
Ge
^^^
spur
Posts
Retweet
##zz
racism
tempo
weare
##atives
##nology
##claim
Million
Nichols
##dah
Numerous
ing
Pure
plantations
donor
##EP
##rip
convenience
##plate
dots
indirect
##written
Dong
failures
adapt
wizard
unfortunately
arg
practitioners
economically
Enrique
unchanged
kingdoms
refined
definitions
lazy
worries
railing
##nay
Kaiser
intell
cracks
sells
ninety
##WC
Directed
denotes
developmental
##icate
unfortunate
disappointing
##oos
Jen
Tre
NWA
drifting
Horror
##chemical
behaviors
bury
surfaced
foreigners
slick
):
##rene
##ditions
LO
scrap
kicks
comprise
buddy
##anda
Mental
##ype
Dom
wines
Limerick
Luca
Rand
##won
Tomatoes
homage
geometric
pred
telescope
Shelley
poles
##fan
shareholders
Autonomous
cope
intensified
##rupt
Reformation
grazing
##uine
FOR
provisional
##bies
sig
##riel
Cynthia
Raleigh
vivid
threaten
Length
subscription
roses
THAT
##isms
robin
ble
Laos
Stanton
nationalism
##clave
##ND
##17
##friend
staging
Busch
Cindy
relieve
advant
packs
neglected
##arth
alpine
Evolution
uneasy
coastline
Destiny
Barber
Julio
##ushing
informs
unprecedented
Pavilion
##bei
##ference
betrayal
awaiting
leaked
V8
puppet
adverse
Bourne
Sunset
collectors
##glass
##usion
copied
Demon
conceded
resembled
##rass
Levy
prosecutor
##ench
flora
manned
deaf
Mosque
reminds
Lizzie
Products
Funny
cassette
congress
##rong
Rover
tossing
prompting
chooses
Satellite
cautiously
Reese
##ropriate
Huang
Char
giggled
Kitty
##ession
Pleasant
Aye
##raid
judging
##sec
intentionally
##agn
aggression
##xy
transfers
employing
!)
##oda
##13
Blessed
Ski
flavor
Rosie
##burgh
sunset
Scholarship
WC
surround
ranged
##jay
Degree
Houses
squeezing
limb
premium
##upp
steals
##inated
##iam
madness
vacancy
hydraulic
##pective
##prise
Marks
Boxing
environ
academics
##lich
##TY
CDs
annoying
hardcore
monitors
paperback
cables
mic
upside
advent
Ra
##clusive
Aug
esc
objected
stalked
Simple
colonists
##iving
CT
discusses
fellowship
Carnival
cares
Miracle
ner
rooted
shortage
borne
Quentin
meditation
tapping
Novel
##reg
Alicia
Burn
famed
residency
encour
Johannesburg
Zhu
offended
Mao
outward
##inas
XV
denial
noticing
##ís
quarry
##hound
##amo
Bernie
Bentley
Joanna
mortgage
##PU
breat
lenses
extracted
depiction
##undred
Networks
Broad
Revenue
compar
virgin
flanked
weareone
##ih
probable
Liberals
Falcons
drowning
phrases
loads
assumes
inhaled
awe
logs
slightest
spiders
waterfall
##ication
rocking
##Bl
Cons
roofs
##gard
prehistoric
wary
##rak
Inf
clips
sustain
treason
microphone
voter
Lamb
psychologist
wrinkled
##ères
mating
Carrier
340
##dden
sensing
##rino
destiny
distract
weaker
UC
Nearly
neurons
spends
Apache
##rem
genuinely
wells
[^
stereo
##girl
Lois
Leaving
##ued
fungi
Pier
Cyril
80s
Jungle
##tani
illustration
Split
##hana
Abigail
##patrick
prem
diminished
##under
packaging
##EG
reb
communal
Manufacturing
sentiment
143
unwilling
praising
Citation
pills
##iti
##rax
muffled
neatly
workforce
Yep
leisure
Tu
##nding
Wakefield
ancestral
##uki
destructive
seas
Passion
showcase
##ceptive
heroic
142
exhaustion
Customs
tim
Scholar
sliced
##inian
Direction
##odes
Swansea
aluminium
##ension
ceramic
McCoy
Career
Sector
therap
Damascus
pictured
Interest
citiz
trigg
obsolete
##tant
irritated
inappropriate
overs
prin
bail
Talent
Sur
ours
##nah
barred
legged
sociology
Bud
dictionary
guarant
Cover
obey
batter
##rict
##dong
apprentice
Cyrus
Role
##GP
##uns
##bag
Greenland
Porsche
Rocket
##32
organism
Je
reliability
?)
##ubmit
Found
##hine
motors
promoter
unfair
##oms
##note
distribute
eminent
rails
appealing
##ags
meaningful
Stephan
weareoneEXO
Consumer
psychiatric
bowler
saints
^[
*.
##ocked
Pret
Dorian
Townsend
hastily
##jima
Quincy
Sol
fascinated
Scarlet
alto
Avon
certainty
##eding
Keys
##chu
Chu
##iver
ions
frust
Thanksgiving
conserv
finan
oxide
pavilion
Supply
Casa
Bollywood
sadly
mutations
Keller
##wave
nationals
Brit
hun
predict
Catholicism
Vega
##eration
##ums
Mali
tuned
Ass
Plans
radial
##anted
Lexi
##14
##iety
sacks
unpleasant
Empty
handles
Cur
Bon
switches
intently
tuition
antique
##jk
fraternity
notebook
Desmond
##sei
prostitution
##pop
deed
##In
501
Somewhere
Rocks
##mons
campaigned
gir
gases
suppress
##hang
Merlin
por
dominate
expeditions
thunder
##ups
##rical
Cap
thorough
Ariel
##kind
renewable
constructing
pacing
terrorists
Bowen
documentaries
Hel
##lass
##alytics
Merchant
Mor
Net
Din
^|
##ENT
peasant
Garrison
encourages
gratitude
reminding
stormed
##omp
pronunciation
##ailed
Weekend
suggestions
qual
##DI
Active
##otes
influ
Merrill
##itions
didnt
Medina
HE
##yk
duel
cracking
ED
Guam
pickup
renovations
fore
##izer
delighted
##iri
Weaver
altern
tens
##hab
Clint
##itar
##each
petals
Farrell
##care
caste
##will
Ezra
##qi
##standing
thrilled
ambush
##ief
##SU
Resource
blur
forearm
specifications
contingent
cafe
##iology
Antony
fundraising
grape
univers
turnout
##udi
Clifton
##initely
Irvine
##opus
neigh
Monthly
Bihar
statutory
Roses
Emil
##nite
lumber
optimal
##DR
pumps
plaster
##ario
##aco
nightclub
propelled
##hun
ked
surplus
wax
##urai
pioneered
Sunny
imprint
Forget
Eliot
approximate
patronage
##bek
##ely
##EASE
Partnership
curl
snapping
29th
Patriarch
Int
seldom
mir
astronomy
pregn
XIV
airborne
205
TR
recognizing
stranded
arrogant
bombardment
destined
ensured
146
robust
Kore
Interactive
Offensive
Fi
prevents
probe
propeller
sorrow
Blade
mounting
automotive
##eshold
wallet
.@
lashes
Forrest
hon
Cell
Younger
shouts
##cki
folds
##chet
Epic
yields
homosexual
tunes
##agram
##text
Manny
chemist
##owl
resubmit
pilgrimage
##NN
##riff
MLS
##rive
Huntington
translates
Path
slim
##ndra
##oz
climax
commuter
desperation
##icles
denying
##rious
daring
seminary
polo
##clamation
Message
Torah
Cats
identities
Poles
photographed
fiery
Questions
##cross
winters
coff
##vio
Nurse
Senegal
Salon
prescribed
justify
spoil
##olf
##orted
HQ
GO
evaluated
momentarily
##unts
Debbie
##licity
##TP
Mighty
Rabbit
##chal
Events
##oices
##ht
##rav
Bordeaux
##laus
Release
##IE
##kowski
1900s
SK
Strauss
buff
Sonia
Updated
synagogue
McKay
flattened
370
clutch
contests
toast
evaluate
pope
heirs
jam
tutor
reverted
chick
nonsense
hesitate
Lars
hey
Laurie
##sc
accordingly
customary
148
Ethics
Multiple
instincts
IGN
##UR
appl
##hit
":
desirable
##uary
##yam
alias
docu
licenses
SM
misery
147
Cola
assassinated
fiercely
####
las
goat
substrate
lords
Cass
Bridges
ICC
lasts
sights
reproductive
##asi
Ivory
Clean
fixing
##lace
seeming
aide
##ients
harassment
##FF
MY
reasonably
##coat
##cano
NYC
WE
Fifty
immunity
Canadians
Cheng
comforting
meanwhile
##tera
##blin
breeds
##soci
##ipe
##ads
##verted
##aded
##oral
neat
enforced
poisoning
Mus
##ugg
enforce
predecessors
survivor
Month
unfamiliar
pierced
waived
dump
responds
Mai
;&
angular
Doesn
interpretations
##yar
##lfriend
ens
policeman
Text
Eighth
painfully
##este
Haha
PLEASE
##cles
blockade
encouragement
##fie
Cle
Malone
champ
utilize
Nissan
inherent
151
agreeing
syllable
determines
Protocol
conclude
##uh
40th
Sk
Taiwanese
##esting
boiler
printer
Lacey
titular
Klaus
Fallon
Wembley
fox
Chandra
delete
obsessed
##Ps
micro
##25
Cooke
##ares
weaving
Shall
Hussein
glaring
softball
Reader
Dominion
Trouble
varsity
exclus
Chaos
Kang
Kramer
Eisenhower
proves
Connie
Downvote
governors
Bethany
opener
Normally
Willy
linebacker
Regent
Used
##cel
Twilight
##shaw
Companion
Tribunal
simpler
##gam
Experimental
COM
cellar
deadline
trout
Hubbard
ads
idol
##hetto
sam
clues
salmon
1700
Omega
Caldwell
softened
Bills
Honolulu
##lig
Terrace
suitcase
##esides
frantic
##oons
Join
Sitting
Fortress
Riders
sickness
enzymes
saf
Bern
forged
spir
##ruff
##rl
##reens
inspector
champagne
##held
##FI
hereditary
Taliban
handball
##wine
Sioux
##ionally
honoured
139
grind
Skye
meanings
anal
cardiac
analyzed
vegetable
##FS
Royals
dial
freelance
##fest
partisan
petroleum
ridden
##inity
panting
##comb
presidents
Haley
##chs
contributes
Jew
discoveries
panicked
Woody
eyelids
Fate
Tulsa
mg
whiskey
zombies
Wii
##udge
investigators
##bull
centred
##screen
Bone
Lana
##oise
forts
##ske
Conan
Lyons
##writing
scr
##ride
rhythmic
154
promot
pioneers
##bright
captivity
Sanchez
Oman
##mith
Flint
Platform
##ioned
emission
packet
Persia
##formed
takeover
tempted
Vance
Few
Toni
receptions
##owers
exchanges
Camille
whale
Chronicles
##rent
sched
##rift
Alto
dom
asshole
onward
foremost
longing
Rockefeller
containers
##cribe
intercepted
##olt
pleading
Bye
bee
##umbling
153
undertake
Izzy
cheaper
Ultra
validity
##pse
Sa
hovering
##pert
vintage
engraved
##rise
farmland
EXOL
##ifier
Atlantis
propose
Catalonia
plunged
##edly
demonstrates
gig
##cover
156
Osborne
cowboy
herd
investigator
loops
Burning
rests
Instrumental
embarrassing
focal
gif
readings
swirling
apolog
parameter
##zin
##holders
Mandarin
Moody
converting
Escape
warnings
##chester
incarnation
##ophone
adopting
##lins
##imately
##laws
Axis
Verde
Kappa
Schwartz
Serbs
caliber
Wanna
Chung
downvot
nursery
,"
bless
likelihood
logging
##erty
Boyle
supportive
##alt
##usive
builds
Marseille
omitted
motif
Lands
##analytics
##change
Barrow
##ership
Harmony
WWF
endured
merging
convey
branding
##onder
167
Italians
##dh
hosp
btsanalytics
frequ
crawling
thoughtful
.....
concluding
brewery
Moldova
Wan
Towers
##❤️
202
##uu
Lagos
imposing
Congrat
jack
Bacon
##coh
##EST
conception
calculations
porn
##mile
##ivated
mutation
strap
##lund
demographic
nude
perfection
stocks
subreddits
##arter
Alejandro
bites
fragment
##hack
##cul
GB
Surgery
Berger
punish
boiling
consume
Elle
Sid
Dome
relies
Crescent
Congrats
Bloody
##icient
upheld
Guess
Restaurant
signatures
font
millennium
mural
stakes
Abel
hailed
insists
Alumni
Breton
##jun
digits
##FM
##thal
Talking
motive
reigning
babe
masks
pod
Shaun
potato
sour
introdu
Somali
##OOOO
##rab
##wy
GOP
telecommunications
Noise
messenger
tidal
grinding
##ogenic
Rebel
constituent
peripheral
recruitment
##inese
FU
pumped
Ravi
poked
##gley
Olive
diabetes
discs
liking
sting
fits
stir
Mari
Sega
creativity
weights
Macau
mandated
Bohemia
disastrous
Katrina
Baku
Rajasthan
waiter
##psis
Siberia
verbs
##_B
patented
Sl
##ndon
##isions
Hunters
Greenwood
Shock
accusing
skipped
Sessions
markers
subset
monumental
Viola
comparative
Alright
Barbados
setup
Session
standardized
NOTE
##Me
appoint
##Red
Nationalist
##WS
Troop
motiv
Treasure
goodness
weary
originates
100th
compassion
expresses
hyp
168
composing
Bas
Tex
si
bald
Finding
Presidency
Sharks
favoured
inactive
pic
suffix
princes
brighter
Med
classics
defendants
BT
terribly
Strategy
evenings
##ção
doesnt
Afric
absorb
##cohol
##anc
RBI
soothing
##aks
concurrently
##tr
Nicholson
fibers
swam
'.
Allie
veh
Dartmouth
Mafia
##bos
##LD
applic
vocabulary
##bla
##lé
intending
##dler
Guerrero
sunshine
pedal
##TO
administrators
periodic
scholarships
Loop
Madeline
exaggerated
##70
Regan
occas
Explorer
##oids
EVER
vows
Reporter
Unable
Average
absorption
repost
Fortunately
ped
Grandpa
##HP
##ovo
potent
temporal
adrenaline
##udo
confusing
guiding
Dry
qualifications
joking
wherein
heavyweight
##ALL
nightmares
pharmaceutical
gri
##aled
dat
Gregor
##UP
censorship
degradation
glorious
**.
##rench
380
Miriam
sped
##orous
offset
##KA
fined
specialists
Pune
##BR
Congratulations
propped
fungus
perman
frantically
Gabrielle
Hare
committing
imo
clar
Wilmington
stunt
numb
warmer
preacher
earnings
##lating
integer
##ija
federation
homosexuality
##isf
epidemic
yo
shoving
Milk
Satan
Tobias
innovations
##dington
geology
##adio
Imp
spared
culminating
Daphne
Focus
severed
stricken
Paige
Mans
flats
Russo
communes
litigation
strengthening
##powered
##OUT
##irty
Painting
Watkins
trump
specializes
Select
##rane
##aver
Fulton
playable
##VN
openings
sampling
##coon
##21
Allah
travelers
allocation
Tur
Loch
##hm
commentators
fulfilled
##coin
##kt
Vanderbilt
Vijay
pledged
lmao
diagram
drilling
##MD
##plain
Edison
productivity
31st
##rying
eth
##gano
##oration
##bara
posture
bothering
platoon
politely
##inating
Meme
Job
##vale
stark
incorrect
Mansion
renewal
threatens
Bahamas
fridge
Add
crow
##edia
JUST
adm
gaps
neural
##storm
overturned
Austral
shields
explan
sen
ah
gradual
killings
##anza
consultation
twitter
Felipe
coincidence
##ène
##adow
Handbook
##loaded
Dude
Guns
arguably
##xx
compressed
depict
seller
##qui
##inton
ignor
Olympia
librarian
##acles
dramas
JP
Kit
Maj
##lists
proprietary
##sequ
##ettes
##tok
exceeding
Lock
induction
numerical
##vist
Straight
BB
imaginary
##apped
##UB
Carla
bouncing
##ashi
abolition
##uction
restoring
scenic
oppon
Doom
overthrow
para
##vid
##izz
Concord
HC
cocaine
deputies
##epend
visibility
##wart
Kapoor
Sund
##agan
flashes
##ights
decreasing
199
quotes
vain
satisfying
Acc
##linger
310
Hanson
fauna
##azy
Definitely
Ev
##VB
Employment
vocational
Exactly
bartender
butterflies
tow
##chers
##ocks
pigs
merchandise
##game
##pine
Shea
summ
rot
Josephine
monopoly
##dled
Cobb
warships
cancellation
someday
stove
##Cs
candidacy
superhero
unrest
Toulouse
admiration
undergone
tags
##Th
costly
threads
290
Cafe
amber
Tory
##ogue
definitive
##dress
proposes
redesigned
acceleration
##asa
##lymp
Presley
exits
Languages
##usting
Mode
spokesperson
:…
Ban
forthcoming
grounded
ACC
compelling
logistics
retailers
abused
##gating
soda
contr
CB
##arded
##ditional
blush
##tem
hurling
dread
ge
Foley
##utions
scenarios
##mentation
##inting
Score
fatigue
hairy
correspond
##iard
defences
confiscated
:(
##IGH
hous
Shot
advertised
460
##oman
ridges
Promise
Dev
exclusion
NHS
":%
rockets
##offs
sparkling
256
disappears
mankind
##hore
HP
##omo
taxation
Multi
DS
Virgil
##On
Dell
stacked
guessing
Jump
Nope
cheer
hates
ballots
overlooked
analyses
Prevention
maturity
dos
##cards
lic
Mare
^^|
Petty
candid
differing
iOS
##riage
wow
Sentinel
##KE
90s
Pamela
480
Asher
##acks
Vicente
landings
portray
##udes
##rael
Virtual
^^[
finances
Jain
Somebody
Tri
behave
Michele
Click
yout
FAA
Gallagher
##lide
Monkey
195
aforementioned
##rism
##bey
##kim
##puted
Mesa
hopped
unopposed
recipients
Reality
Been
##acing
149
playground
pillar
##rone
Guinness
##ests
;)
depended
##uted
Reuben
frightening
wooded
Target
globally
##istance
Morales
##bage
drunken
##onday
Nob
##erk
Strip
discrete
Abs
##zzling
gazing
Outer
##quisition
Sikh
Booker
##yal
contemporaries
Jericho
##UM
Seems
##witch
Militia
##rez
##IV
dangers
##utter
##iven
Programs
darling
participates
railroads
##ienne
behavioral
bureau
Mag
161
Hicks
##rises
Comes
inflicted
bees
kindness
##rees
Comp
generators
##Cl
##omy
RTs
methodology
Alvin
##HH
latitude
[](
DE
Morse
subst
educate
##elf
##MF
##cz
traff
consum
attemp
##fill
constitutes
artery
feudal
avant
cautious
##akers
immigrated
##chenko
Saul
Clinic
Fang
choke
FR
flexibility
temperate
pins
##_M
oddly
inequality
157
Natasha
Sal
##uter
215
aft
blinking
UP
Seriously
##cellent
cookies
Wedding
impulse
Overseas
terrifying
Bro
Nah
##see
440
Met
og
imagining
##cars
Nicola
exceptionally
intellig
##cup
Oswald
##pic
dismantled
deserves
incor
Fairy
discourse
Counsel
departing
Arc
guarding
##orse
420
alterations
vibrant
Em
##ours
terrace
rowing
Led
accessories
SF
Sgt
cheating
Atomic
##raj
Blackpool
##iary
boarded
substituted
bestowed
lime
kernel
##jah
Belmont
shaken
sticky
retrospective
Louie
migrants
weigh
sunglasses
thumbs
##hoff
##orter
Hopefully
Extra
Polo
motives
Drum
infrared
tastes
berth
verge
transl
programmed
warmed
Shankar
Titan
chromosome
cafeteria
dividing
pepper
CPU
Stevie
satirical
##retch
alt
Died
backyard
Mexic
##reath
##bir
Governors
portraying
##yah
Revenge
sou
politic
margins
Bahn
OH
admin
YOUR
catcher
replay
hol
paste
spamm
Aristotle
##ruction
corpor
weekday
##ikes
CO
cree
reci
##stad
litre
ultra
##cke
Mongol
Tucson
correlation
Att
traps
Groups
Hai
estab
##what
cents
exerc
concession
clash
Trip
Panzer
Moroccan
cruisers
torque
Ba
grossed
cos
restriction
concentrating
FDA
##Leod
suic
Scholars
##esi
throbbing
specialised
##heses
Chicken
##fia
##ificant
Erich
Imagine
##76
manipulation
namesake
##tom
Hoover
cue
Lindsey
Lonely
275
##HT
combustion
subscribers
Punjabi
respects
Jeremiah
penned
##gor
##rilla
suppression
Tit
Crimson
piston
Derry
crimson
lyrical
oversee
portrays
CF
,…
Lenin
Cora
searches
clans
VHS
##hel
Jacqueline
Redskins
Clubs
desktop
indirectly
alternatives
marijuana
suffrage
##host
Irwin
##liff
Process
##hawks
##Co
##Ph
Sonata
yielded
Flores
Tot
armament
adaptations
integrate
neighbours
shelters
##tour
Skinner
##jet
##oom
Hillary
##ERE
##elles
ripping
exec
associ
charities
Rwanda
emer
crossover
##ournal
barked
guerrilla
##ivate
Grayson
##iques
##vious
##got
Rolls
denominations
atom
affinity
bc
Wish
WHAT
##ortion
interrogation
##cey
insp
##lifting
192
Sands
tbh
mast
Likewise
##ueller
##oft
contempt
Hum
assaulted
fills
establishments
Mal
consulted
##omi
##rave
greet
Coll
##egan
Pulitzer
subscri
##tf
##ractical
##hib
Hasan
ARE
##zzy
wed
Panic
wheeled
recorder
##ructure
##warm
##gly
##alm
Balkan
Lockheed
Polly
farewell
suffers
purchases
Eaton
##ideo
Quick
commenting
Saga
beasts
hides
motifs
##icks
Alonso
Springer
Wikipedia
circulated
encoding
jurisdictions
snout
UAE
Integrated
unmarried
Heinz
##lein
femin
deleted
##PP
Zen
Cycling
Fuel
Scandinavian
##rants
Conner
reef
Marino
curiously
^/
Gina
manners
activism
Mines
Expo
Micah
promotions
Server
booked
derivatives
Exact
detailing
reelection
##chase
182
##icted
Po
158
Peel
winger
##lim
canyon
##pit
LDS
A1
##shin
Hy
pathetic
)](
##mist
Aren
##lag
confronts
motel
textbook
shine
turbines
##i_
Darcy
##cot
NA
##lessness
Banner
recognise
stray
Kitchen
paperwork
realism
Chrysler
filmmakers
fishermen
mut
FO
Vishnu
fiddle
Eddy
Origin
##tec
##ulin
Flames
Rs
bankrupt
Extreme
Fortnite
##emption
ratified
##iu
jockey
Stratford
##ivating
##oire
Babylon
pardon
AI
affordable
deities
disturbance
Trying
##ONE
##ici
Papers
advancement
70s
##icing
EX
announces
tugging
##fr
##PE
v0
##ishes
ambition
aura
challeng
##lected
\-
hes
boiled
clarity
##thern
investigative
routing
Yankee
##uckle
McMahon
bugs
eruption
##rooms
Minutes
relics
##airs
inte
sac
valves
weakly
##amps
Middleton
collided
##quer
bamboo
insignia
Bel
exercised
##ports
echoing
Que
considerations
WILL
##bius
objections
wast
disguised
plaza
##VC
aggress
Judicial
ascent
imminent
Cent
hello
Lumpur
Niger
Goldman
vendors
Kensington
##ando
browser
##aturday
##tri
Prem
##pis
##lea
Cheyenne
Bold
pics
Hollow
dan
axle
##toire
##actic
impose
perched
utilizing
slips
Benz
Michaels
manipulate
Chiang
##icit
Dolphins
prohibition
attacker
ecology
domin
##SB
##uild
attracts
recalls
glacier
lad
chem
*,
reve
melodic
##aby
__
assumptions
Cornish
##aru
DOS
Maddie
##mers
lyric
Luton
nm
##iforn
Reno
%.
##ago
Broadcast
Finch
sensory
##bent
Jeep
##uman
additionally
Buildings
businessmen
treaties
235
Stranger
gateway
Charlton
accomplishments
Diary
apologized
zinc
histories
supplier
##olly
162
asphalt
Treatment
Abbas
##post
##uzz
Bloom
sedan
Ver
##cum
antagonist
denounced
Fairfax
mal
##enko
noticeable
Budget
Buckingham
Snyder
retreating
Jai
spoon
invading
giggle
woven
gunfire
arrests
##Is
##ondon
respiratory
violet
##aws
Byrd
shocking
tenant
Jamaican
Ottomans
Seal
theirs
##isse
##48
cooperate
peering
advert
163
##sole
Ant
Mongolian
Bauer
Spy
collects
prophecy
##😭😭
##moor
Brick
calculation
fixtures
exempt
##apping
Ada
Thousand
circum
tracing
##achi
bodyguard
nich
supplying
disappoint
interception
monitored
##heart
Paso
overlap
annoyance
scient
yellowish
stables
elders
illegally
honesty
bri
skinny
spinal
Rate
Bourbon
##cor
##lished
Medium
##ATE
##aba
##22
McC
stationary
ju
dresser
scrutiny
Buckley
Clearly
##SF
Lyrics
##heimer
drying
Oracle
internally
rains
##last
Enemy
google
independ
Ole
Tweets
Rosario
Rifles
##flix
battered
Pepper
Presidents
conquer
##oops
castles
##aldo
##ulf
Depending
Lesser
Boom
trades
Peyton
164
emphasize
accustomed
categ
Ai
upvot
##mins
##35
##rons
leak
piled
deeds
lush
disg
beginnings
##iger
##estern
McGill
##iable
##chaft
##gies
humour
Bomb
securities
Might
##zone
satisf
Matthias
Movies
Levine
vengeance
ord
Challenger
Misty
Traditionally
constellation
histor
deepest
workplace
Absolute
!”
impatient
##ML
disp
##xit
scenery
Slater
postseason
troupe
##ACK
Volunteers
Facility
militants
Reggie
sanctions
OR
Nam
countered
interpret
wit
coding
expectation
Duffy
##edy
Tong
wakes
Bowling
Vehicle
##ashion
salad
intricate
stronghold
medley
##uries
##bur
joints
##rac
##yx
##IO
unc
Welch
distributor
Ark
cavern
trench
Weiss
restaur
decreases
docks
eagerly
irritation
Matilda
embar
Visiting
##marked
##ART
Pay
ML
Moreno
attendant
Bury
instrumentation
##izza
clit
nuns
symphony
translate
375
loser
##user
##VR
##meter
##orious
harmful
NEW
advoc
Mendoza
sniffed
Hulk
Sad
##ulator
##nz
Donnell
instruct
deported
tweets
SD
Aerospace
##Off
voc
Fantastic
cavity
remark
emblem
fearing
##iance
dedic
Liberia
stab
##yd
Pac
##adem
fi
Everton
##99
mantle
hack
Ramon
##genic
Shooting
Smoke
Random
Africans
MB
tavern
bargain
voluntarily
Ion
Peoples
Rusty
attackers
Patton
sins
##cake
Hat
moderately
##hala
##alia
requesting
mechanic
Mueller
##Reddit
Robbins
##ulum
susceptible
Bravo
Slade
##ahah
rubble
entrusted
Creation
swe
smoothed
isnt
evenly
reviewers
skip
Ter
177
Rough
chap
Reeves
##cede
Administrator
garde
minus
Remind
grenade
Ninja
transcribe
Mic
Punk
contributors
Aragon
Tottenham
##cca
une
VA
laced
dealers
##sonic
crisp
##For
complic
Butch
##ratic
Farmers
corridors
unseen
##bsp
Countries
Lone
envisioned
Katy
##lang
##Re
imag
##neck
##unte
LOL
bidding
Corey
concurrent
##acts
##gum
ABOUT
Californ
##rators
arising
##unta
pathways
49ers
bolted
complaining
ecosystem
capt
tv
narrated
212
Soft
influx
toler
som
plagued
tents
##inary
1750
Risk
citation
Tomas
##oughts
seals
Bruins
Dominique
attic
competent
Obv
##cci
hugging
encoun
bacterial
##lection
vowed
eh
elongated
hangs
render
centimeters
vill
Mu
turtle
cond
##gaard
grapes
bravery
collaborations
deprived
##amine
##oses
##gins
arid
##uve
coats
hanged
##sting
Pa
prefix
FUCK
Exit
Chain
Flood
Materials
suspicions
##ERS
hovered
Hidden
##state
Personally
##24
Mandy
norms
fascinating
airlines
delivers
##rust
unre
syn
pillows
##onomy
jar
##kka
Wr
fireworks
morality
discomfort
lure
uneven
##jack
Lucian
171
archaeology
##til
mornings
Billie
DR
impending
spilling
tombs
##Boy
Celia
Coke
underside
##asty
Vaughn
Daytona
[](#
Pascal
Alien
SU
172
##lage
iPhone
Gonna
genocide
shutdown
oven
endure
dashed
simultaneous
hilar
Wally
Basically
ants
predator
reissue
flaw
Speech
funk
Rudy
claw
Hindus
Numbers
Bing
lantern
##aurus
scattering
poisoned
##active
Andrei
##OTUS
NOW
##ritz
Gregg
##iminal
selections
Flor
lick
Laguna
##IX
BR
Warning
turf
buyers
rom
IMO
exploit
worm
initiate
strapped
tuning
filters
haze
weed
##oster
##iqu
##culture
amendments
Promotion
##union
Clair
##uria
petty
shutting
Idk
Phoebe
Zeke
conducts
grains
clashes
san
illegitimate
willingly
Deer
Lakers
Reference
##UL
commitments
interrupt
salvation
Panther
Str
Assessment
cancel
efficiently
attorneys
Dynamo
impress
##racy
clinging
randomly
reviewing
Romero
Cathy
charting
clapped
rebranded
retweet
coma
indicator
punches
##tons
Sami
Thats
prospects
Pastor
##vl
electrified
##CI
##antic
Leg
Chef
muzzle
selecting
pas
Wheel
protocols
##tat
Extended
beautifully
nests
##stal
Andersen
##anu
##aine
adop
kneeling
##arc
##xia
anatomy
dusty
Safe
turmoil
Bianca
##elo
analyze
ren
##eran
podcast
AskReddit
Locke
Rue
Ac
##uni
patter
Prophet
crooked
disagreed
Versailles
familiarize
flu
##ogen
chewing
##ception
!!!!!
Missile
attribute
majors
Arch
intellectuals
##andra
ideological
Cory
##gency
##fair
Lot
electromagnetic
Distribution
##oper
##WEET
Snap
Terra
repeats
[@
hob
consequ
##gt
cows
Hair
labelled
protects
Gale
Personnel
##athy
##aren
rematch
##OE
Slow
forgiveness
##ssi
proudly
##‍♀
insist
undoubtedly
Québec
Violence
nbsp
##ctors
mourning
linen
accidental
##iol
##arium
grossing
##gl
maneuver
##marine
prestige
petrol
gradient
invasive
militant
##).
widening
##aman
##quist
disagreement
tele
creepy
remembers
buzz
##erial
youtube
Dirk
Supp
Addison
##inen
deposed
##ilty
NRA
Hang
ornate
slab
arri
Fountain
contractors
das
crypt
##‍♀️
##rc
Carly
##_T
Indy
Ligue
greenhouse
slit
##sea
chewed
wink
##azi
##watch
##kon
Gram
Ko
Samson
creators
revive
##rians
spawned
seminars
Craft
Tall
diverted
assistants
computational
enclosure
##acity
Coca
##eve
databases
Drop
##loading
##istration
medic
##ressive
entrances
pork
prospective
Memories
robes
##market
transporting
##lik
Rudolph
Horton
visually
##urd
##illing
Centro
Tor
innoc
##round
admitting
decl
herbs
Glad
Chin
Lear
##bot
##etta
Seasons
explanations
##bery
Friedman
heap
##ryl
Aut
jaws
##agh
Choi
Killing
Fanny
##irmed
##hawk
hopeful
pros
Monty
gum
remarkably
Secrets
disco
harp
advise
##avia
moderator
##cycle
Truck
##IGHT
sincere
urine
##endo
masked
bathing
##others
Fellows
##TM
##EO
owl
##jon
gradu
##leton
208
hostility
pock
baked
Bottom
##AB
shudder
##IRE
##von
##hee
##igg
Cycle
##phs
Lex
##style
scri
Translation
##erick
##imeter
##ière
##pret
wont
##DM
gal
wander
##abor
##AKE
Perez
Pit
##LP
USAF
contexts
Disease
blazing
aroused
razor
walled
Danielle
Mont
Funk
royalty
thee
203
donors
##erton
famously
processors
prec
welcoming
Goldberg
**[
undisclosed
Orient
Patty
vaccine
refrigerator
##23
consonant
##waters
176
sober
EDIT
IC
##uate
Luckily
Selection
conceptual
vines
Breaking
wa
lions
oversight
sheltered
Dancer
ponds
borrow
##BB
BL
Daly
Comments
fertility
spontaneous
Worldwide
gasping
Naz
169
ABS
volunte
ambient
energetic
prisons
##eson
Stacy
##roach
LOVE
Afro
Marin
##ocol
pinched
CL
##sp
"?
##pire
181
nak
swelling
humble
perfume
##balls
Rai
cannons
##orable
Married
Maltese
canals
interceptions
hats
lever
slowing
##ppy
Nike
Silas
Scarborough
skirts
166
inauguration
Shuttle
alloy
beads
belts
Compton
Cause
battling
critique
surf
Dock
roommate
##ulet
invade
Garland
##enses
nutrition
persona
##zam
Wichita
acquaintance
coincided
##cate
Dracula
clamped
optim
overhaul
##broken
embarrass
melodies
ventures
Paz
##stood
Roots
##holding
Tribute
transgender
Rec
chimney
##riad
Ajax
diagn
messed
nowadays
pH
##100
##alog
convin
conclus
Rossi
glove
##TL
Races
tact
tablets
##OTE
##ttes
diner
CAN
Hu
Mohan
anytime
weighted
remixes
Dove
cherry
imports
##ompl
GA
##TT
##iated
##alty
Clarkson
evidently
rugged
Dust
siding
##ometer
acquitted
WW
##mite
infants
famil
gallons
Atkinson
gestures
slated
##xa
Archaeology
unwanted
##ibes
Build
premise
Colby
EVERY
disqualified
##pf
CS
simplicity
##illed
Qaeda
Warden
##bourg
##roc
Invasion
Babe
harness
183
reven
maze
Burt
bedrooms
##nsley
Horizon
##AKING
minimize
peeked
MLA
Trains
tractor
anyways
##iform
Growth
Benton
separates
##about
##kari
buffer
anthropology
brigades
foil
##wu
Domain
licking
whore
##rage
##WAY
Initial
##rors
Rutgers
dams
villains
supermarket
##brush
Brunei
mas
arises
Passenger
outreach
##gill
Labrador
McLaren
##uy
Lori
##fires
Heads
TE
Absolutely
Weapons
##wai
Enjoy
projecting
##ulates
bordering
McKenzie
Pavel
midway
##ooper
streamed
racer
Depend
eccentric
spectral
206
##TF
Wilde
😂😂
clim
lent
##tam
starving
##artment
##utch
##ricted
Breakfast
Mira
blurted
derive
Pet
blunt
sob
Cheltenham
Henrik
reinstated
intends
##istan
unite
##ector
playful
sparks
mapped
Cadet
luggage
prosperous
##ein
salon
##ket
Biological
fro
Tyrone
buyer
Awesome
amounted
Saw
smirked
Ronan
Reviews
Adele
trait
##proof
##orters
Ginger
##junct
digitally
stirring
##isted
coconut
Hamlet
Dinner
Scale
pledge
##RP
Wrong
Goal
Panel
therapeutic
##chat
infectious
priesthood
##inda
submitting
diagnostic
##mbre
strate
sails
##arsh
literal
periodically
Dou
Robot
Bit
Mer
##order
Reaching
Romantic
CP
Wonderful
##tur
##abe
Jud
traitor
##zilla
genetics
mentioning
##REE
resonance
Areas
Shopping
##nard
Gail
Solid
##rito
##mara
Willem
Chip
Matches
Volkswagen
obstacle
Organ
invites
Coral
attain
##anus
##dates
Midway
shuffled
Cecilia
dessert
Gateway
ES
://
vir
jets
goose
striped
bowls
vibration
Sims
nickel
Thirteen
problematic
intervene
Stud
##unds
Mum
semifinal
Radical
##izations
refurbished
nut
##ruary
##asm
cites
Advocate
phr
Emp
preserves
Curry
angled
om
##pad
Cade
##DE
##BTS
researched
torpedoes
Resident
##kn
hay
applicants
depart
Bernstein
##ached
spammers
##rae
favourable
##wari
manip
metabolism
Instagram
##88
calculate
ignition
Celebrity
Belize
sulfur
Flat
GOT
USB
flicker
##inct
Sept
CFL
Pasadena
Saturdays
Titus
##nir
Canary
Computing
Isaiah
##You
formidable
pulp
orchid
Called
Solutions
kilograms
steamer
##hil
equip
successors
Stokes
commer
stre
sperm
API
Rogue
instability
Acoustic
##rag
159
undercover
Wouldn
confl
##77
##ourney
honorable
##chel
denomination
abrupt
Buffy
blouse
continu
Regardless
mel
MORE
Lover
##enger
bacon
##emia
carving
##cripts
Massacre
Ramos
Latter
##ulp
ballroom
Pal
richest
bruises
Rest
Wiley
idk
explosions
##whel
Edo
Ke
Mir
choking
disgusted
faintly
Mil
blasted
headlights
Tours
ensued
presentations
##cale
wrought
hilarious
constit
Quaker
não
recipe
surg
corpses
ppl
comfortably
##wat
Landscape
niche
catalyst
##leader
fo
messy
##RL
Rodrigo
backdrop
##opping
treats
##oti
Anand
bilateral
##UK
VC
socialism
##grad
clinics
##itating
##ppe
flav
seniors
Advisor
##clear
Method
Alley
##orio
formatting
fueled
raided
Axel
NH
rushes
Dixie
Otis
wrecked
accompl
capitalism
café
##bbe
##unes
PO
Aubrey
Det
Whenever
Sears
Scheme
WIN
Meadows
OMG
##RI
##ustic
sacrifices
sustainability
Sil
mystical
Wanted
multiplayer
Applications
disliked
vacc
impaired
empirical
forgetting
Fairfield
Sunni
blurred
Growing
Avalon
coil
Camera
Skin
bruised
terminals
##uty
##roving
Commando
##hya
apps
reservations
needles
dangling
##andon
ht
Yup
##idden
yoga
regretted
Bliss
Orion
Rufus
glucose
Olsen
##isc
##dened
222
humidity
Shan
##ifiable
supper
##rou
flare
##MO
campaigning
descend
socio
declares
ou
Gracie
Images
endurance
^*
Copper
costa
airplay
##MB
meta
dislike
##ufact
occupants
births
glacial
oblivious
cans
installment
muddy
bod
captains
pneumonia
Quiet
Sloan
Excuse
##nine
Geography
gymnastics
multimedia
drains
Netflix
Gear
harass
Fry
undertaking
##pler
bang
Nan
##recht
Dub
philosophers
til
Atari
##pha
##acc
México
Spr
Continuing
bump
graveyard
persisted
Shrine
PS4
defects
Advance
Bomber
Yea
tu
cheerful
##lix
scrub
##eto
awkwardly
collaborator
fencing
##alo
prophet
##orial
coughed
##lication
roadway
slaughter
elephants
pra
Simpsons
vulnerability
ivory
Birth
lizard
scarce
cylinders
fortunes
##NL
Hate
##lympics
##lai
##IVE
##copy
Lenny
!?
Triangle
##...
sampled
savage
amidst
Grady
whatsoever
instinctively
##ingers
insides
seizure
Drawing
Av
TW
nomin
##ww
##ighter
Sparks
lapt
##team
rehearsal
READ
botanical
##hers
compensate
wholesale
Mart
shareholder
prediction
astronomical
##_D
hardest
circling
whereabouts
termination
Canad
Assistance
Dramatic
Herb
##ghter
climbs
188
Poole
301
##pable
##etch
##aters
uncom
relying
Jakob
##redo
proceeding
retur
affiliates
desper
##allo
##holm
Samsung
##ishi
Missing
Xi
##cient
Claus
foam
restless
##uating
##CL
ack
Philips
delta
bombed
ONE
coaster
Ling
Willard
satire
410
',
##wr
Orioles
##ldon
fins
##ugs
Woodward
tease
tilt
brightness
AF
##igns
##loss
##ICK
RET
Whoever
##yers
hitter
Elton
Extension
ace
Affair
restructuring
://…
IG
hi
##PL
spouse
Shay
Himself
piles
preaching
##An
bikes
Brave
expulsion
phil
stride
Trees
##ayl
famine
##avy
Selena
Watt
Banking
##omas
Stockton
dip
tattoos
Vlad
acquainted
Flyers
ruthless
virt
illustrate
##POP
EPA
##rows
##ega
bumped
Designed
Leaders
mastered
pa
##________
McCain
##cil
Artemis
rabbi
flinched
upgrades
penetrate
##iller
transforming
caretaker
invent
Maureen
tightening
##rency
RAM
##icular
##mper
OC
Fifteen
exploited
consistency
interstate
##ynn
Bridget
contamination
Mistress
##rup
coating
##FP
##aint
##ordan
211
Gemma
dependence
Rel
dise
##idents
retaliation
traction
Liter
Dangerous
terminology
psychiatrist
fasc
hurdles
Natal
wasting
Weir
revolves
stripe
Luck
preferences
##while
##lde
defe
##otherapy
Flame
##ologies
viruses
Label
Pandora
veil
##ogical
Coliseum
Cottage
creeping
Jong
lectured
##🔥🔥
shoreline
##essions
##hra
Shade
Clock
Faye
bilingual
Humboldt
Operating
cris
##was
algae
towed
inher
##_C
impacted
smacked
{"
Monsters
Info
Moor
TL
sinister
Postal
178
Drummond
Sign
textbooks
hazardous
Brass
Rosemary
Pick
Sit
Architect
##aaaa
.,
confess
polling
##vest
Julien
##mand
consolidation
giveaway
##ulse
severity
Yorker
choreographer
Ult
##ltry
softer
versa
neut
##quila
dee
##Official
Friendship
Visa
rogue
##zzle
bait
feather
incidence
Foods
Ships
##uto
##stead
arousal
##rote
Hazel
Tra
Swing
##ej
##cule
##jana
##metry
##uity
##rove
emo
Ill
##istics
365
Ones
realise
Café
Albuquerque
##grown
##stadt
209
conc
prefers
withstand
##Bot
CON
Hara
##fulness
domination
##VO
##school
Freddy
ethnicity
btw
libr
hormone
Calder
Domestic
Freud
Shields
ein
nons
BP
##erg
Mustang
##GI
##OOK
patiently
remarried
Orig
##oup
Elephant
ist
tolerate
Tyson
Om
Programming
##lander
modmail
segregation
manufact
quarterly
Kn
photographers
Sheldon
porcelain
mort
goddamn
lively
##orgeous
bumps
##eli
curated
coherent
provoked
##vet
Madeleine
##isco
rainy
Bethel
accusation
ponytail
gag
##lington
quicker
scroll
acce
Bow
Gender
Ira
crashes
ACT
Maintenance
##aton
##ieu
bitterly
strains
rattled
vectors
##arina
##ishly
173
parole
##nx
amusing
Gonzalez
uncomfort
Caucus
sensual
Penelope
coefficient
Mateo
##mani
proposition
Duty
lacrosse
proportions
Plato
profiles
Botswana
([
reins
##amming
encompassing
##gens
Kahn
##kward
summon
##MR
:/…
##DD
Falling
conditional
thy
##bao
##ych
radioactive
POTUS
Newspaper
##people
Lmao
Gaming
sunny
##look
Sherwood
crafted
NJ
awoke
187
timeline
giants
possessing
integr
Cheryl
ng
##_m
polymer
potassium
Ramsay
relocation
##leen
acknow
##bana
##arp
propulsion
denote
combo
registers
headline
Tests
emerges
Articles
Mint
livery
breakup
kits
Rap
Browning
Bunny
##mington
##elly
Anastasia
Zachary
arranging
rif
Erica
Nippon
##acle
Carmel
##osing
##xes
Paddy
##holes
Issues
Spears
compliment
##stro
##org
Lots
##MU
##space
##Radio
##Be
174
Gentlemen
Brexit
QB
convinces
Carmine
Crash
##uesday
Files
Doctors
Beaut
sweating
goats
irre
rendition
😂😂😂
NL
sne
generates
##cans
obsession
##isl
Danger
Diaz
heats
Realm
priorities
##phon
1300
initiation
pagan
bursts
Valent
chloride
Screenplay
amb
Khmer
disgusting
judgement
negotiating
cru
Mabel
densely
Boulder
knob
430
Alfredo
princi
pitches
##ées
##ان
Dep
sacrif
imply
##mot
Smile
spherical
##popular
Derrick
Kelley
Nico
cortex
launches
##ITH
parallels
sup
##child
##umber
canoe
forestry
reinforce
Pri
confirming
tasting
scaled
##resh
##eting
Understanding
prevailing
indic
CW
earnest
##ANT
asserts
##xual
landmarks
Chargers
warns
##flies
Judges
jagged
##dain
tails
##ysis
Millie
##anny
221
##uting
absurd
Dion
propag
makeshift
Specifically
ignorance
Eat
##ieri
comparisons
forensic
186
##icago
skeptical
disciplinary
battleship
##45
Libby
520
Odyssey
ledge
circumst
Eternal
Missionary
deficiency
settler
wonders
##osen
raging
##cis
Romney
Ulrich
annexation
boxers
sect
204
KH
dei
Hitchcock
##ophy
Varsity
##fic
CC
lending
atm
##tag
Agreed
##obe
Defensive
tab
##ifications
stellar
Lam
Trials
contention
Sung
##uminous
Poe
superiority
##anner
325
bitten
conspicuous
##33
Lila
Pub
Petit
distorted
##TER
distinctly
##family
Cowboy
mutant
##cats
##week
Changes
Sinatra
pill
neglect
Innocent
gamma
thrill
reggae
##adia
##Le
##due
landlord
##leaf
visibly
,”
##Band
Gomez
Wed
scarf
##lade
Hinduism
Fever
scouts
Bur
meas
##oki
184
Lao
boycott
unemployed
##lore
ow
##hammer
##ussy
disciples
odor
BS
Lighthouse
Played
whales
discretion
Yves
##ceived
pauses
coincide
spect
dizzy
upvotes
routed
Guardians
ske
carnival
nasal
224
##awed
Mitsubishi
640
Cast
silky
Projects
joked
Huddersfield
Rothschild
zu
##olar
##_s
mildly
##eni
##90
Appalachian
Sahara
pinch
gent
wardrobe
MU
##etal
Bubba
##eeee
spr
Communities
##unge
unification
Beau
Kris
SV
Sum
Minh
reconciliation
Interesting
##str
taped
##reck
certificates
cam
rainbow
##uing
litter
##lique
##oted
Butterfly
benefited
MV
induce
Balkans
Velvet
pupp
##xon
Bowman
##breaker
penis
Log
##oken
##otive
crust
##pps
organizers
Outdoor
nominees
##rika
TX
##inge
Protestants
##imation
appetite
Baja
awaited
##points
windshield
tor
##inder
Brody
Buster
stylized
Bryce
##sz
Dollar
vest
mold
ounce
Champ
receivers
##uza
Purdue
sau
ath
captures
##ESS
Reservation
##stit
impl
cosmic
straightforward
flipping
remixed
##athed
##With
Lim
motorcycles
economies
owning
Dani
##rosis
myths
sire
kindly
gramm
Bean
graphs
##mee
##RO
##AAAA
puppy
Stephenson
notified
##jer
Watching
##rama
Sino
urgency
Islanders
##mash
##ternal
fumble
bul
##stance
##rack
valu
facilitated
swings
akin
enduring
payload
restrict
##taining
negoti
##tooth
610
Jays
eyeing
##quito
transparency
RP
tempor
negatively
##isan
battled
##gur
thankful
Rage
hospitality
incorrectly
207
entrepreneurs
Cra
Mean
hedge
##anta
Corpus
Moder
Whereas
##ln
fetch
happier
##ARD
bullying
graceful
Height
screensh
willingness
qualifier
191
Syed
Wo
Layla
-&
Webber
##hum
Rat
##cket
behavi
Monterey
contaminated
Beside
Mustafa
Nana
213
##----------------
Reason
##arah
spike
[^(
AU
disciple
charcoal
##lean
formulated
Diesel
Mariners
accreditation
glossy
1800s
##raham
flo
unison
##erve
shear
overseeing
vernacular
bowled
##lett
unpopular
Ext
##umption
Gaston
##TI
upload
Cups
##bones
rein
##Te
minors
##iots
Dickens
##EL
##NBC
Presents
ambitions
axes
##intendo
Yukon
bedside
Ribbon
Units
faults
conceal
##lani
prevailed
214
Goodwin
Jaguar
crumpled
Cullen
Wireless
ignorant
remotely
Bin
mocking
straps
ceramics
##avi
##uding
##ader
___
twenties
Learn
Problem
quasi
Lamar
KST
##avan
Barr
##hington
hooks
##angers
DON
194
Ir
Nero
entit
trance
Homeland
benches
Repl
dismiss
Vis
##pting
foliage
##AND
BestBoy
Fam
Ahead
Murdoch
dictatorship
wraps
##obs
spawn
hab
respectable
jewels
understands
Literally
Bryn
##-|
##agles
capsule
intrigued
Sleeping
communists
##hhhh
##current
##vez
doubling
booklet
##uche
Creed
##NU
spies
##sef
adjusting
197
Imam
prob
Tanya
canonical
restraint
senators
stainless
;*
Matter
cache
restrained
conflicting
stung
##irect
Sustainable
antiquity
193
heavens
inclusive
##ador
fluent
303
911
Univers
mig
##plex
Tammy
inspire
##passing
##ested
Lama
Mixing
##udd
masc
parlor
tactic
198
##‍♂
prostitute
recycling
sorted
banana
Stacey
;/
sympt
cough
LE
conven
gangs
runoff
thoughtfully
##eric
##erely
Bra
detector
##usted
????
##‍♂️
##inter
Map
Leaves
downvoted
skater
vent
##color
390
cerebral
hostages
mare
Jurassic
swell
##isans
Knoxville
Naked
overwhel
mac
Cobra
##anga
Sexual
##EEEE
##iae
196
##OLD
Ravens
Blaine
calories
Makes
symmetric
Er
##^(
Sylvester
glazed
unp
Radar
fused
Families
Blacks
Sale
Zion
Commun
microwave
slain
##Tr
##pants
##dling
killers
routinely
Janice
hearings
ast
##imm
continents
##oty
doub
##shot
##yna
injected
##_b
##ibi
downvote
Confederacy
Barnett
disasters
incapable
WOR
rhythms
betting
draining
##hak
Callie
Glover
##iliated
Sherlock
hearted
punching
##abled
Leaf
Pi
builders
furnished
##DAY
Photo
##zle
Touring
fumbled
pads
##uge
flex
Gunner
eerie
Marius
Bonus
pots
##othing
##pta
Bray
Frey
Ortiz
stalls
belongings
Subway
fascination
metaphor
Bat
alot
choos
sway
##gro
rhetoric
discount
Fool
##mmm
admire
conspir
Strand
TNA
##roth
##olve
##mat
##OB
Haw
tut
determin
explo
]|
stimulus
transports
Sabbath
##Up
Richter
4000
##grim
Fed
##lette
deteriorated
analogous
lin
Contact
energies
inspiring
Yiddish
Activities
##itchen
hasht
##agger
##ilton
Judd
consonants
labs
smuggling
dyn
avid
Dest
truce
undead
Pict
Mostly
bracelet
Connection
Hussain
awhile
##UC
##vention
liable
genetically
##icy
Important
Wildcats
daddy
transmit
##cas
##PR
Yesterday
##lite
Nicky
Guys
Wilder
Lay
skinned
Communists
Garfield
##eless
organizer
Loss
crafts
walkway
Chocolate
Sundance
"}
congr
modify
swayed
Surface
analysts
brackets
drone
parachute
smelling
##orage
filthy
frogs
vertically
##OK
##cience
marries
AHL
35th
mat
##ateful
cube
dismay
relocate
##на
Hear
##digo
##oxide
##reh
converts
hangar
##oya
##ucking
Spectrum
##urb
spoiled
Keeping
Putin
nic
outrage
Improvement
##UI
masterpiece
FREE
Calling
chant
brack
mediated
manipulated
affirmed
##hesis
Squ
skies
##llan
comprom
##kos
mosaic
symb
##overy
##azz
folder
##LM
guts
noteworthy
##rada
AJ
sculpted
##iselle
##rang
recognizable
##pent
dolls
lobbying
recru
iam
staple
rum
tandem
Hiroshima
thieves
##ynx
faculties
Norte
##alle
\]
chords
##ylon
Gareth
loot
iPh
FIA
Levin
##_R
groin
##igs
nun
Listed
Honourable
Gain
rigorous
##erer
##ealous
**,
##levant
##track
##agers
##enary
540
clone
sediment
esteem
sighted
cruelty
##boa
inverse
violating
Amtrak
Status
Cour
vertex
COMM
harmless
Amir
mounts
##iffer
counseling
Audi
pal
splits
criter
Humans
Salmon
##have
##rado
##amin
216
takeoff
classmates
psychedelic
##gni
Gypsy
231
Anger
GAA
Polit
##),
##nesday
)**
Odd
baptized
Fiat
fringe
Consider
179
elevators
perspectives
Comment
BestBoyBand
Question
frontal
950
thicker
##rog
FL
Sixteen
Baton
Hearing
commemorative
dorm
upvote
purity
##ashing
risky
Georgie
relaxing
##illiant
downed
##rar
Slim
##phy
##OY
ik
Parkinson
217
Marley
Shipping
sweaty
Ky
Sindh
frustrating
implying
Armenians
intercept
DA
ta
ascended
sniper
Grass
Walls
salvage
Dewey
generalized
learnt
PT
##fighter
##tech
##27
dod
##zza
mercenaries
slots
##burst
##finger
##formation
Princes
MM
##het
##strom
Ins
homework
cuz
##Os
##hao
##uffed
Thorpe
MAGA
exquisite
firstly
liberated
technician
Oilers
Phyllis
herb
sharks
Pv
##stock
Product
banjo
FROM
##than
Visitors
unavailable
divor
oxidation
Vogue
##copic
##etics
Yates
##ppard
dur
Trading
philos
Principles
##ursday
##wife
##igned
##HAHA
nouns
liqu
vegan
##eton
##_G
precedent
##oog
Guido
rewards
##ilis
##PN
clipped
WITH
##endra
averages
tentatively
BUT
##vos
Certainly
305
Enter
stom
DAY
distrib
horiz
marsh
angered
ventilation
Hutton
Ritchie
##having
Eclipse
flick
motionless
Amor
Fest
##uster
lays
:-
cous
buck
tatt
disrupted
*****
Disco
##ols
criticisms
grins
##IST
Liber
maxim
salute
Coaches
junk
terrif
Dont
Uprising
Diet
##marks
chronicles
robbed
ANY
##ahi
Bohemian
magician
wavelength
Kenyan
augmented
fashionable
##ulty
Spot
F1
Mat
##jos
##loop
enjoyment
exemption
Centers
##visor
Soundtrack
blinding
practitioner
solidarity
sacrificed
##oso
##cture
##fast
blended
Abd
Copyright
##nob
34th
##reak
Claudio
##respect
rotor
testify
##ends
##ATION
nerf
dict
##osure
##ogs
MAKE
pc
backseat
mutually
ram
Mallory
bounds
Collective
Poet
##aze
pertaining
scraped
Phelps
crane
flickering
Proto
bubbles
popularized
removes
##86
Cadillac
Warfare
audible
rites
shivering
purs
##nst
outr
Govern
fascist
Bali
Kathryn
ambiguous
furiously
morale
patio
Sang
inconsistent
topology
Greens
monkeys
controvers
189
Toy
vow
##ías
bombings
##culus
improvised
lodged
gam
garment
startling
##IME
##olved
Thorn
categorized
Till
Eileen
wedge
##64
],
patriotic
unlock
##oshi
badminton
Compared
##arl
decks
##itate
Kemp
Giveaway
spaced
resolutions
sighs
##mind
##rep
Cartoon
huddled
policemen
forwards
##ulting
equals
ENT
inspected
diss
MG
Ther
pamphlet
privile
dans
##thoughts
##ulton
##iaw
parental
unconstitutional
watts
..."
Dare
##66
mand
Valle
invalid
Tweet
Detachment
acronym
Yokohama
verified
RETWEET
groove
Liza
clarified
compromised
265
##arden
##orf
hesitant
Fruit
Application
scam
icons
mins
##iy
interventions
##PT
punt
remnant
##rien
Ames
manifold
spines
floral
##MTV
comrades
Fallen
orbits
PH
hobby
##ruption
implicated
researching
\[
Ta
terminate
simpl
Rings
approximation
fuzzy
##ús
thriving
##iders
Conor
alarmed
etched
Cary
equiv
Ally
##rington
fundament
mint
Lat
##unity
ol
Dems
Oceania
VR
trams
##aq
OUT
ventured
choreography
prototypes
Patel
mouthed
trenches
bom
##yya
Lies
deception
wrest
##⠀⠀
mit
earthquakes
Creat
##igga
##aja
token
Gupta
SL
Beckett
initials
ironic
Tsar
subdued
shootout
sobbing
liar
Scandinavia
Souls
##eez
therapist
trader
Regulation
Kali
busiest
##ashed
32nd
Telephone
Vargas
##apers
##_W
##essed
Favorite
abducted
bonding
219
255
correction
!…
drown
tourn
unbeaten
Pocket
Summers
Quite
rods
NS
##ndy
buzzing
cadet
##chain
attire
directory
utilities
naive
populous
Hendrix
##actor
disadvantage
1400
Landon
Underworld
RA
Occasionally
mercury
Davey
Fucking
spa
wrestled
Hun
eclipse
Sienna
supplemented
thou
Stream
elimin
##gall
##berries
##piration
##Sch
Bucks
abandoning
Hmm
tast
232
venom
##31
Roche
dotted
stun
calcul
Milo
Sharif
divides
justification
prejudice
fortunate
##vide
Premios
Rowe
inflammatory
##eld
avenue
Sources
nicht
Messenger
##cr
advocating
formulation
Hah
emphasizes
fab
Armored
##ented
nutrients
##unno
insistence
Martins
landowners
##RB
comparatively
headlines
snaps
##OME
Celebration
##mad
republican
##NE
Trace
##500
##Ind
proclamation
NRL
Rubin
Buzz
Weimar
##AG
una
Gre
##ental
##_L
Distance
intensely
overheard
Arcade
diagonal
hazard
Giving
weekdays
loy
reput
actresses
##hare
Pulling
[[
Ep
catering
shortest
Norm
##cure
##ICE
##reta
prote
jer
##uddin
Moments
senate
Feng
Prescott
##thest
218
divisional
os
sparse
surrounds
coupling
gravitational
werewolves
##lax
Rankings
cha
Switch
Shia
##mart
franch
unne
interfaces
##voting
batt
irrelevant
inputs
solicitor
Olaf
cabinets
puzzles
##tains
Unified
prohib
WA
solemn
##opy
Tito
##NY
##ounce
horseback
Anth
pharmacy
prevalence
BIG
Swami
##bush
delic
Philipp
mythical
divers
Scouting
aperture
progressively
##bay
?!?
bounce
Floor
##OCK
##44
adulthood
helm
Bluff
Passage
Salvation
lemon
napkin
scheduling
##gets
Elements
Mina
Novak
stalled
legisl
Infrastructure
sust
meg
swap
Katz
Norma
fulf
trusting
rul
shel
acqu
Mur
223
Crowley
##fight
##ulo
wiki_
##hani
pounder
surprises
##chor
##ogg
Dukes
Discord
##zier
ja
Patriot
silicon
##VP
HR
telegraph
##clude
cardboard
Len
##QL
disrespect
##ints
analytical
specify
ineffective
hunched
abnormal
hypoc
##dn
rig
Emilia
##
Maddy
##wana
##_P
External
##Coins
endorsement
trau
Anaheim
Ware
offences
##MTVM
##inem
popping
##ktop
Conf
##Music
##notes
Identity
heroin
nicely
##kk
apron
congestion
exha
padded
##fts
invaders
##ONG
freshly
Halle
endowed
fracture
ROM
##max
FF
diffusion
#…
##asp
Tam
Draw
Spin
Talon
Anthropology
Regard
nausea
##shirt
insert
Fresno
capitalist
indefinitely
apples
Gift
scooped
60s
##news
mistakenly
##lover
Unt
!**
Equipment
abusive
orphanage
##achel
MTVBR
##unda
Hor
##estic
saloon
33rd
Spend
##chair
##empt
fle
chaotic
pornography
brace
##aret
Upd
SSR
resentment
Arbor
PremiosMTVM
##uren
unlimited
##with
##jn
Bram
Ely
Pokémon
pivotal
lil
Database
##esse
Shine
stumbling
##ovsky
##olen
Fur
Polk
functioned
##layer
##pas
sett
##MX
blackness
cadets
feral
Damian
##actions
2D
neighb
Apocalypse
##aic
mais
##china
##kovic
##bres
destroys
nap
Macy
sums
##_A
Wisdom
rejects
##amel
60th
Cho
bandwidth
Sou
##enez
##orama
Mutual
shafts
##estone
##icking
accord
replaces
waterfront
suc
mute
convictions
ine
calmed
suppliers
Cummings
GMA
fearful
Scientist
Sinai
examines
experimented
ONLY
Enforcement
Scarlett
##LLY
Healthcare
##onte
hah
inverted
##36
##regation
Gener
##ection
")
Airbus
overlapping
Drivers
lawsuits
bodily
##udder
Wanda
Effects
Fathers
##INK
MemeCoins
Ridley
##uls
Cath
##Mc
Electricity
landslide
HAVE
##ucker
entertain
##uration
##XX
sleepy
Nickelodeon
steaming
irony
schedules
snack
spikes
##ocolate
##nesia
##bella
##anish
Greenville
plucked
Harald
##ono
Gamma
infringement
roaring
deposition
##pol
##orum
660
accus
passports
engagements
Akbar
rotated
Sat
##gart
expans
##vt
hype
uttered
traumatic
Dex
eq
Holloway
discl
apartheid
##nee
Counter
Colton
idiots
245
Spaniards
Temp
Schedule
scratching
squads
verify
vib
##rimin
rotten
EA
aids
ALD
##yed
##érie
Sting
Pen
Dai
##fers
”,
!&
Melvin
cannabis
glider
hyper
unnecess
pussy
Skating
Mem
auth
audit
BRE
distributing
226
312
interpreter
header
Alternatively
ITS
smug
##kumar
cabins
remastered
KN
Kelsey
LED
tentative
unfollow
;[
shaved
##42
##AME
Harvest
inward
theres
##OOD
hem
##34
Typical
binds
wrath
Woodstock
forcibly
bac
##charged
##elsea
prepares
amenities
penetration
##ghan
coarse
##oned
enthusiasts
nerv
dra
fielded
##cky
Prot
##obia
470
beers
tremble
youths
attendees
wtf
##sex
##aron
communism
dir
##abi
sty
Wen
differentiate
jewel
##SO
activate
assert
laden
unto
##anged
Guillermo
accumulation
##GM
NGO
##istory
calculating
drastically
##votingteam
peeled
GET
insurgents
outdoors
##enia
Aspen
Sep
awakened
##eye
Buy
Maiden
insanity
##brian
furnace
Colours
distributions
reset
syllables
AW
Martian
accountant
Atkins
husbands
sewage
zur
collaborate
highlighting
##rites
##PI
colonization
nearer
##XT
dunes
positioning
Ku
multitude
luxurious
Volvo
linguistics
plotting
squared
##soft
##ENTS
##uds
Fuji
ji
##feit
##ahu
##loat
##gado
##FW
##oku
América
##iza
Residents
vine
Pieces
DD
Vampires
MTVBRK
smoked
harshly
spreads
##ockey
##iper
betray
electors
##istry
Considering
exploits
stamped
Dusty
enraged
Nairobi
##38
intervened
##luck
alleg
##lda
Hereford
Jarvis
calf
##itzer
Comple
salesman
Lovers
cigar
Angelica
doomed
heroine
OT
oblig
offenders
##ulously
articulated
pron
Bitcoin
Gardiner
btsvotingteam
Shu
gigantic
jung
Gar
coasts
Maker
ale
stalking
##oga
shif
lucrative
##cember
##changing
Veg
##Con
##ubs
bucks
grouping
physiological
##OH
##sun
academ
assurance
reconcile
rib
scarlet
Thatcher
anarchist
##ission
Atl
iHeartRadio
cocktail
Sweeney
##estyle
concessions
oppression
reassuring
##poli
EV
##TR
##VI
##uca
##zione
directional
Jul
Beneath
Couldn
Kabul
##national
MO
##jit
Desire
##riot
enhancing
Upvote
##PO
inspir
##etime
volatile
Bernardo
Python
333
ample
discord
automobiles
##innamon
gf
Ju
fet
salaries
Turbo
acquisitions
ko
strengths
##GO
instit
Pig
Actors
Beard
sanitation
##RD
##jis
Omg
worms
##idas
Juno
Larson
Ventura
Northeastern
weighs
Laur
collaborating
lottery
##rano
Wonderland
gigs
##Br
##zano
##edd
cens
mixtape
predominant
tripped
##ruly
como
investing
##osi
Brasil
hiss
tom
PART
MTVBRKPOP
560
kilometer
Loc
analyzing
##As
BEF
listener
##cakes
negotiation
##Cru
Santana
##inson
Vir
Seneca
skeletal
Covenant
Steiner
##lev
##uen
Neptune
retention
##upon
Closing
##aek
chalk
toile
NZ
##To
##hop
spec
BAN
pil
Brewery
Conflict
Them
renew
turrets
##69
Petra
Slave
##rets
adjustment
Micro
##char
##ookie
framing
stature
##uv
##sies
##46
Prom
Logic
inadvertently
quant
spheres
towering
heightened
Dodd
rink
##fle
nur
bulb
diver
ul
Ive
Exodus
dudes
España
Canadiens
diam
thud
reigned
rug
##official
Dash
##iens
mascul
pets
Patri
manually
dart
username
Sven
##senal
Pot
YES
graffiti
revolver
humming
Babu
protector
typed
##oods
Sparta
Wills
subjective
##rella
temptation
##liest
insec
Sadie
manifest
Depends
Transfer
stere
eve
recipes
##Ex
##draw
retailer
##GH
establishes
##cluded
dynam
Ursula
PLAY
##lars
##rena
qualifiers
##arry
colt
depictions
##oit
Spiritual
differentiation
staffed
transitional
##lew
##alax
fatalities
seg
Bayern
PremiosMTVMiaw
Weeks
##CU
##athan
capacities
vul
Cy
surviv
evidenced
##HD
##ographer
assessing
evolve
hints
compon
##LLOW
##ront
Yahoo
TB
##_d
##zas
baggage
Elected
secrecy
##champ
Character
##osition
veget
cape
Bernardino
vapor
Dolly
counselor
##isers
LS
##khar
##CR
notch
GR
GOT7
bounty
lend
spoiler
initi
##dating
pseudo
golfer
simplest
NEVER
##😂😂😂😂
Triumph
dinosaur
dinosaurs
Fant
Seahawks
**:
resorts
reelected
brut
reproduce
universally
##OA
ER
tendencies
Ce
tack
ven
reckless
##icz
##ricks
christ
questionable
Audience
##lates
preseason
Quran
trivial
Haitian
NTA
dialed
))
Heard
ecosystems
##andy
hormones
Carbon
Rd
##arney
##working
##alu
dram
pu
gra
Morrow
Dar
ensures
posing
remedy
##ATED
disclosed
symp
##anges
rumours
surveying
##ollywood
Aziz
Jewel
Plays
##ioc
##enders
Christi
##anks
##isters
jailed
##dr
##aylor
neighbour
butler
decre
murdering
oils
Fav
Editorial
detectives
bolts
##ALLY
rt
malaria
36th
BEFORE
Opened
##ixel
harmonic
serum
##FE
Franks
fingernails
##gli
culturally
evolving
scalp
VP
deploy
uploaded
##aints
##evo
Jammu
Spa
##icker
flirting
##ownt
Heidi
Majority
`.
##alytic
Lets
bunker
Rom
BEL
##erem
##Ad
ceilings
##UD
Moderators
Recovery
dire
##good
Manson
##eem
##known
##evin
227
quota
##arks
incentive
Accounting
##arr
Eureka
Reaper
buzzed
tort
courtroom
dub
##mberg
KC
Gong
ax
0D
NPR
criticizing
protesting
##pired
##ör
abuses
##zil
Bru
lux
emojis
Gemini
##onto
##oston
Duff
Wasn
HERE
cleaner
Ze
planetary
Survivor
Zionist
cheat
##rary
##yt
disruption
yielding
##yana
bids
unidentified
Garry
Ellison
##areness
Fishing
Hayward
demos
modelling
##anche
##stick
Replies
entertained
##hesion
piers
Crimea
##mass
WHO
boulder
trunks
##World
trending
Palestinians
Pursuit
##INE
Dora
contender
vet
**|
##iversary
##former
##ibel
Whole
proliferation
##tide
##weiler
fuels
predictions
##ente
##onium
Filming
absorbing
NCT
strangled
conveyed
inhabit
prostitutes
recession
bonded
clinched
##hile
##iji
##cean
Pleasure
Rite
Christy
Therapy
sarcasm
prescri
hilt
probation
##lims
bots
underworld
biodiversity
SBS
groom
brewing
dungeon
LIVE
Hari
turnover
Tar
##omer
].
orthodox
styling
tun
##esth
priced
youre
nightm
##abar
Yong
##ucky
ted
Hernandez
##ego
LIKE
##ummy
##And
##JP
lag
##iveness
Fre
Loyola
##4th
##|:
goin
##inum
[^^
GPU
pee
Singing
suspiciously
##hesive
?](
Regarding
flap
stimulation
###
Apr
Yin
gaping
tighten
skier
##itas
##lad
##rani
264
Ashes
##uct
Problems
##Love
##rading
balancing
sunrise
##ease
##iture
##ritic
Fringe
##iciency
Inspired
Opt
##atical
disapproval
TheR
##tenance
##tails
##urger
Disaster
##ronic
WR
paradise
Aero
Came
sneaking
Gee
Beacon
ODI
commodity
##My
graphical
Gretchen
spire
##check
phen
##emp
efficacy
##ifs
tribunal
Sup
downhill
TIME
medications
##kaya
widen
Sunrise
explos
distinguishing
pawn
##BO
##irn
fandom
##97
Easton
##END
yea
##aque
defect
##isher
Goose
concent
##classified
##_F
shaping
preached
godd
##irts
Ein
Hailey
musicals
##noon
Galileo
##erable
Fighters
Lac
##ometric
295
Leafs
Milano
overl
##VD
##ivist
penetrated
Mask
Orchard
plaintiff
##icorn
Yvonne
##fred
THR
peek
##olves
Caracas
repealed
Bois
dell
##adays
Dolores
askreddit
peacefully
gall
condom
Granny
Orders
sabotage
Div
##rings
compass
marshal
gears
##King
dye
Differ
communicating
donate
emerald
vitamin
administer
Fulham
Ur
##llas
##azine
Held
layered
disclosure
Akira
programmer
shrimp
Crusade
##rassen
##accur
bakery
##cute
Garth
Citadel
uniquely
Curling
##orders
mum
Para
##ști
sleek
##ione
##yc
Lantern
mesh
Dig
##apper
på
prosecuted
Alba
Gilles
greedy
twists
incent
Viper
BF
Totally
##Pro
##????
##pelled
curving
predictable
Grave
Watford
fest
athlet
##vary
Westwood
fluids
Models
statutes
Comey
##atured
##culate
Framework
clin
Pel
##De
##annon
##otion
##Sw
##thouse
arr
festivities
##love
Beyoncé
italics
##istically
DB
##utive
outs
nigga
##ueva
##urning
##51
Ange
##mobile
285
Mimi
##erved
nesting
Keeper
Ways
##onal
##oux
veter
MMA
##bark
##IK
Expl
RIP
inaccur
##rently
wreckage
Pont
Playboy
reluctance
##GG
apprenticeship
preferring
Value
originate
##wei
Coun
Ton
Cheers
##ussion
jammed
##ibs
##inite
GIV
##rast
##ccer
straining
creep
indicators
##clud
humiliation
hinted
alma
tanker
ich
Haynes
FOLLOW
amazement
branched
rumble
instru
DLC
paranoid
expenditure
##ener
Musicians
banished
misunder
baptism
Joker
Persons
hemisphere
EST
##ück
flock
##xing
lbs
Kung
crab
##ongi
Venez
Regulations
barrage
parcel
##ós
Tanaka
refund
Natalia
Voyage
flaws
stepfather
grav
##4R
AUT
shap
##\*
Cinderella
Feast
Loving
Previous
Shark
##aser
##_j
collaborators
fuckin
##reland
Graeme
Juniors
##blem
##😍😍
##ulos
##ák
##YY
##hwa
pointless
##oved
bast
demeanor
##annels
##FO
AMA
dunno
instructors
##ahl
ALDUB
emptied
hyd
saga
##🤣🤣
exploding
##NED
Crusaders
##caster
##uations
streaks
CBN
bows
insights
ka
1650
diversion
LSU
Ugh
Snail
Response
sanity
Producers
imitation
##fine
Lange
Spokane
splash
##apa
Siberian
magnet
##rocodile
capitals
DID
swelled
Rani
Bells
##ponder
arithmetic
rumor
##hampton
favors
Weird
marketplace
VOTE
tsunami
unpredictable
lan
##_H
Tradition
##ophob
stench
succeeds
##roup
Anya
Users
oversized
totaling
pouch
##nat
Shower
leverage
satin
ben
discrimin
Lund
Niall
thereof
##quid
util
barge
Animated
##53
##alan
Ballard
utilizes
Done
ballistic
NDP
gatherings
##elin
##vening
Rockets
Sabrina
Tamara
Tribal
WTA
##ilm
blinded
flux
Khalid
Una
prescription
##jee
Parents
##otics
##food
Silicon
cured
electro
perpendicular
intimacy
##rified
spons
##iams
##powder
incentives
McKenna
guild
##ounced
##vember
Alzheimer
ASK
262
Seas
##cam
horizont
##orrow
##okes
ENTIRE
##hul
##nington
isol
Gotta
Pirate
ARMYs
##Sc
indicted
......
refrain
poke
Lal
stomped
##Pad
##alaxy
Reef
disposed
plastered
weeping
##rato
athe
hourly
tumors
%,
Lyle
##ITE
##owder
writ
credibility
assholes
Braun
Graphic
ammo
muster
##nex
Ni
##65
##iek
##idays
##ooks
Peck
maple
bursting
##lava
sle
rite
##jak
Moment
##riors
Styx
poking
Spartan
uma
Hepburn
Vict
Titanic
newsletter
waits
##endment
agitated
eats
##ANK
Chow
##ibl
TELL
##sexual
sermon
234
##pay
##lung
Qi
meds
mined
sprinter
lore
coward
##gable
##hell
##thin
##FB
##days
##hay
rainforest
238
Hemisphere
boasts
##nders
lob
##kat
30pm
wasnt
strateg
lyricist
Yout
Intern
emails
checklist
chunk
##boo
thrusting
DAC
informing
pistols
echoes
Tier
battleships
substitution
##belt
moniker
##icip
ger
##cons
devs
##01
Reply
parting
tongues
unw
peop
##odi
modular
celebrates
preview
steamed
Bismarck
302
737
vamp
##finity
##~~
weaknesses
husky
##berman
Pak
##icide
##_E
tailored
Transponder
VIP
syntax
Educ
TreCru
doses
filtered
overview
Cleopatra
Conversely
Arm
Burger
##itors
Osc
##iat
mana
##amente
Nell
##andal
FoxNews
colder
##onym
sab
Semitic
##green
reflective
1100
##-|-|
journeys
achie
cancell
THEY
residue
Gunn
compreh
##Squ
##crates
##zig
Astros
Renee
Emerald
trolling
connectivity
undrafted
1080
treasures
Exc
##theon
py
Destroyer
SW
frank
vo
briefcase
confinement
Bree
##WD
Athena
233
Padres
Thom
speeding
melee
Dental
ducks
cod
##iden
##lou
Asylum
##usk
dusk
pasture
##cm
##UU
##Gl
##named
diplomacy
##yrics
Leagues
Towns
comedic
premature
##FT
##mona
##ATING
trimmed
Charge
Cream
guarantees
##ür
splashed
##oming
depl
##cape
Maynard
predatory
redundant
Mob
Send
sobs
Burgundy
edible
outfits
Spotify
dazed
dangerously
idle
.'
incon
##kens
tl
broker
weddings
##halt
Becca
McGee
ive
protagonists
##pelling
Keynes
aux
stumble
##ordination
Nokia
reel
sexes
##woods
##28
Gree
##voc
##oir
REALLY
##ptus
##avis
OFF
insults
fulfilling
sheath
##ayne
Mei
Ordinary
Collin
Sharpe
##pto
Market76
##OX
Background
##ignment
Assault
transforms
Hamas
Serge
ratios
##byn
swaying
##_J
Rosen
##gant
Eth
##Fr
curly
penny
Kamal
cowork
Sailor
Spence
phased
Brewers
amassed
Rub
myst
Eh
mythological
##SN
##byss
##Game
Sovereign
preface
Parry
##Al
altitudes
crossings
addict
ish
##ensions
taut
Poke
##owa
VER
254
##Gr
compiling
Shelton
##rior
228
Poll
Shepard
Labs
Pace
Carlson
grasping
TA
Delaney
Winning
robotic
intentional
shattering
##boarding
##git
##grade
bru
Reserves
amazon
proposing
##ober
cutter
Mongols
NW
aster
Codex
Cristina
Daughters
Rees
forecast
##ACT
NGOs
Stations
##isdom
Erwin
LGB
##EX
cooper
Schumacher
compens
##rophe
)?
Oricon
Jer
WAS
##fighting
lau
Hol
mindset
Prospect
stairwell
Mah
applause
complementary
##uba
grunt
##mented
Bloc
compat
loft
noisy
##hey
490
contrasted
##inator
##rief
lvl
##fica
Cantonese
Blanc
rab
License
artifact
##ISS
dar
Amongst
Prakash
RF
*](
milestone
##vard
Winters
Mead
LOT
Lulu
](&
unh
Cha
Infinity
Meadow
subsidies
##valent
liberals
Ching
medicinal
navigate
Carver
Twice
abdominal
regulating
RB
toilets
Brewer
weakening
ambushed
2x
Wor
Lansing
unacceptable
reliance
stabbing
##mpo
##naire
Interview
WHY
##imed
bearings
discour
Rashid
##iation
authenticity
vigorous
##frey
##you
biologist
NFC
##........
##wash
GU
##75
Ut
withdrawing
##qa
##India
bleed
inclination
stain
##ilo
##alley
thor
privileged
cereal
trailers
##aehy
neon
##OWN
Mariana
caress
##47
##USA
experimentation
Window
convict
signaled
##YP
rower
Pharmacy
interacting
241
Strings
dominating
##onds
##iking
Wire
pains
sensations
##adium
##ordin
##39
spotlight
##hend
elemental
crypto
Jameson
##ongue
honoring
pained
frag
##lux
Psychological
assemblies
ingredient
Martial
Penguins
beverage
Monitor
mysteries
MAN
Ly
##EAWAY
intellect
crore
AMC
Funding
Chinatown
Establishment
##inds
enjoyable
AUTOM
Pray
##rams
Fem
newborn
descript
comprehend
Invisible
##vp
##acon
246
contraction
##lif
incomp
##rok
BREAKING
inaccurate
suns
Exam
Techn
##rete
pearl
Leaning
##kook
Ja
swallowing
Automatic
Madness
haunting
paddle
##UE
SB
##vies
##igar
##bolt
##iber
Fender
##acking
##ARE
##liv
hind
homestead
hopeless
##dles
Rockies
garlic
fatty
colon
##ismic
Gillian
Inquiry
Schultz
XML
##cius
##uld
##Rep
grenades
omg
##igi
4chan
optimistic
##poon
Refuge
stacks
Bose
smash
surreal
Lib
##evit
Conquest
##roo
##cend
##kell
Gladys
##ribly
playlist
##umer
GOD
Nic
knocks
Bey
biased
##pile
242
Diamonds
strides
eclectic
Betsy
zomb
qui
##_p
dissolve
moss
Suburban
NEED
##bria
tally
turtles
##uctive
finely
nick
phenomen
##!!!!!!!!
oz
pact
loneliness
##hov
Tomb
multinational
risked
americ
USL
##ORT
##quiries
dunge
stereoty
Kamen
Kristen
reefs
implements
##itative
educators
garments
gunshot
territ
FE
GIVEAWAY
vigorously
Stamford
assemble
packaged
downt
état
Viva
paragraph
##cipl
##wire
Stick
Navajo
alg
]]
thro
ABA
##zor
aj
Partner
thru
##BI
##26
thump
Celeste
Kiran
pir
eg
inflammation
##arel
Features
loosened
SN
Deluxe
Speak
economical
Frankenstein
Picasso
showcased
##zad
Rog
##planes
tal
##overs
##Bay
prosecutors
slack
Horses
##urers
Angry
coughing
Est
##Man
\/
##zak
challenger
clocks
##ieving
##ffect
##usi
cursing
stimuli
##ANS
##qualified
slapping
contrad
narration
##arre
Advertising
CSI
alliances
mixes
##yes
covert
amalgamation
reproduced
##unny
##gis
##km
##appy
Annette
Boots
Champagne
##imited
Daryl
##emon
##jou
##llers
COMMENTS
adaptive
technicians
##pair
##usal
Yoga
fronts
leaping
proced
harvesting
keel
##ESH
petitioned
ti
yells
##IND
proponent
##James
perce
##zal
Homes
Includes
##ifer
##oodoo
##lete
awarding
mirrored
ransom
##Show
outlook
##ganj
DVDs
Update
HAPP
##95
barren
##avs
Suicide
Went
vulner
Lau
notions
Amnesty
##apse
##inja
GE
hooded
umpire
WTF
Catch
HS
##erd
Dynamics
Equity
Oro
Charts
Mussolini
populace
muted
occup
twe
##OUR
ignited
inevit
termin
##asant
anguish
registry
##tub
##hards
##ipedia
251
Hooker
uncomfortably
##6th
PvP
demonst
MiG
giggling
vibe
##pected
coinc
pricing
##quence
##osphere
whats
Ber
##belie
Vita
##igen
Worst
blat
Pentagon
##brand
Showerthoughts
Graf
unnatural
Fake
bio
##soever
hypoth
##utt
chatting
spices
##aus
untouched
##izzard
Doll
turkey
Syndicate
esp
mes
##roots
Como
clashed
numer
wip
fantasies
##iating
parag
Sicilian
inspect
sensible
bes
##final
Fal
poised
RC
metabolic
Tobacco
Mecca
optimization
##heat
lobe
rabbits
NAS
##rastructure
##liner
Cas
carpenter
nationalists
##brae
summarized
##venge
Designer
misleading
Visit
##meyer
Matrix
excuses
##aines
##ogether
401
Moose
drafting
Sai
##ggle
Comprehensive
##Qu
skate
##WI
##enan
##ruk
narrower
outgoing
##enter
Grow
##MM
BEST
travellers
banging
scarred
##enum
##arra
##obi
Sometime
##än
BAFTA
Hurricanes
configurations
PD
immortality
ingred
gothic
//
rn
viewpoint
Maxim
perm
emitted
quantitative
##omes
roy
Wiki
Meat
Tao
swimmers
Shaking
bf
mainline
pover
Quantum
sav
Nair
banquet
adorable
slee
##etically
Wil
synonymous
incurred
password
sprung
##vere
Credits
Gi
Faces
##vu
statesman
Zombie
##gage
##going
Sergey
dormant
possessive
totals
mentality
HOW
##odies
HM
Youtube
Ramirez
Wicked
impressions
##Net
##cap
##ème
Transformers
Poker
RIAA
Cru
##chuk
##abello
FUCKING
spacious
QU
alternatively
narrowing
##anye
authorization
Membership
Zeppelin
BU
Sadly
steer
##orium
Thread
##rops
##ighters
endings
SJ
SMS
ejected
grams
##izard
Birch
Hilary
struct
orphan
clawed
##Live
##ressing
Wilkins
bb
outspoken
suspic
Cop
##cheng
##resp
harvested
novelty
ineligible
oversees
##_f
obeyed
inevitably
Kingdoms
burying
Fabian
relevance
##gb
##MCA
sarcastic
##onda
Akron
229
sandwiches
Adobe
Maddox
##azar
Hunting
screenshot
Smiling
quests
Juventus
Leroy
Sab
attach
##SAP
PE
##film
Structure
##igate
olds
projections
##agues
outnumbered
REPE
judiciary
paramilitary
playfully
##olit
##tras
Chico
Vin
informally
abandonment
adap
Snapchat
injuring
Az
tutorial
##nea
##olm
Hz
##atural
poses
Marissa
alerted
willed
##KS
Dino
##ibilities
##vani
Barbie
Thankfully
625
bicycles
,&
inconven
##wolf
tas
##idy
hal
AMD
##inks
Ak
##_c
##ovie
Darryl
obst
Aven
##pec
##ungs
##ilst
penetrating
spectacle
##inia
BELOW
residual
compatibility
hike
Underwood
depleted
pist
##odus
##ropriation
rotting
orient
nurs
Happiness
Lille
Suns
cookie
rift
warmly
Huh
Bugs
Gotham
##At
Properties
##seller
##ubi
Created
MAC
##ASS
Requiem
Ulysses
##esy
franchises
##icious
##utional
celestial
kinetic
720
STS
transmissions
arent
forums
freeing
reptiles
tumbling
HER
##rising
##almart
physiology
dope
Loves
bodied
neutrality
REPEAT
assessments
Vicky
##hom
hampered
##uku
Custom
timed
Swed
##xious
elastic
##section
intro
intim
shipment
243
artworks
boulders
Bournemouth
##cue
##LF
newbies
rumored
retweets
outd
Chun
##❤️❤️
Ent
Equality
252
##ikipedia
merch
workout
Roach
cramped
##ultural
Logistics
Punch
fines
Lai
caravan
##55
lame
Collector
pausing
315
migrant
hawk
signalling
typos
bosses
Demons
surfing
Rana
insisting
DACA
adolescent
##jong
##rera
##umba
Regis
brushes
##iman
nav
storytelling
##29
contrasting
regeneration
##elling
prompts
afforded
reactors
costing
##uela
##gat
sie
chanting
secondly
##ouston
##ikos
##orney
TS
##live
Cost
##Go
##vs
weeds
rejecting
revoked
affluent
fullback
progresses
assign
##Squad
replication
gliding
inqu
##bah
##igma
Flow
ii
newcomer
sla
Ve
Candace
fractured
interiors
confidential
Bot
footing
##robe
Coordinator
##mf
jumper
##imp
config
tou
281
acknowledging
leveled
puzz
crimin
migrate
Frog
Rare
wouldnt
##urous
##Girl
nomadic
##iera
woken
lifeless
fif
##idd
Dot
Sachs
##iggas
bigot
Tacoma
Weight
mushroom
RS
conditioned
##zine
horm
altering
Hind
Phot
Patti
substant
clicking
gorge
interrupting
whis
drawers
cheated
Granted
Specialist
##itte
connector
worshipped
jew
consoles
##iley
##iler
glued
##zac
fences
pls
honeymoon
313
A2
disposition
Gentleman
Gilmore
glaciers
##QU
Calhoun
convergence
Aleppo
shortages
##43
EL
##worm
##codes
##mente
neutron
##ossa
Bloomberg
Salford
VERY
##ryan
Slayer
refere
credentials
Anim
YE
File
stinging
unnoticed
Mach
ecstasy
espionage
Ry
sarc
circulating
bargaining
blaming
serviced
conce
HK
Medic
Delilah
wra
graded
Fore
Kaplan
feasible
##OULD
roomm
Burnley
dreadful
MUT
!!!!!!
Judah
##ync
Liver
recycled
##Fans
backstage
parchment
##idency
Kern
vend
easiest
##mini
##abs
##ingu
nah
Ezio
impe
paralyzed
Ara
yeast
##olis
downvotes
Vi
banged
david
##dick
##Play
glide
Tes
##natch
Hotels
Household
parasite
##Sp
youthful
wo
##tero
##anti
2d
Sher
squash
##nets
##IDE
vid
Abrams
libert
assaults
##rocery
##otte
Swamp
287
Spurs
##atable
Fargo
auditioned
##health
Haas
Aud
abbreviation
prosec
##osit
favorites
specials
Jac
Enlightenment
##umes
##vir
Scot
Lacrosse
elves
Share
##pear
Borders
controllers
##villa
excelled
democrats
infer
camouflage
perpetual
Ang
devoid
?**
##iami
##oris
elabor
Lia
discouraged
sue
ba
Excellent
Layton
noir
smack
##ivable
BTSArmy
auch
Pokemon
weaken
weaponry
##azza
Shake
backbone
Certified
clown
occupational
caller
enslaved
soaking
##It
perceive
##tained
##pid
feminism
##owns
Indie
##avelin
##ldo
##atag
Hundreds
Savings
comedies
Honors
Mohawk
Told
coded
corrections
hideous
trusts
hose
Calais
##redit
Bless
kan
AK
Colour
##etical
##mploy
McGregor
localized
fucks
Darrell
##asion
squirrel
freaked
Spir
##may
##ungen
analy
Proud
commence
Donaldson
##iddle
MR
SAS
Tavern
Teenage
admissions
Instruments
##_t
##icket
contemplated
##istent
Jing
Elect
recalling
Dhabi
emphasizing
illumination
##tony
legitimacy
Theres
Reporting
McDonnell
Polar
Seconds
aspiring
derby
##fol
misle
outlines
Changing
distortion
##cter
Mechanics
##edi
##vana
Egg
Wolverine
Stupid
centralized
knit
##Ms
RM
Ogden
storylines
Ital
lavish
beverages
##boys
Uber
forcefully
superb
Elm
patri
follower
Plants
slang
trajectory
Nowadays
Bengals
Ingram
perch
coloring
carvings
doubtful
##uffy
##err
##41
Curse
253
nightstand
##oves
innov
FT
##ados
unex
Yours
##amon
##bang
Texans
injunction
organise
wors
Diam
oceans
##aley
Success
vit
##guin
Hahaha
Davy
allowance
obituary
skins
treasury
##wayne
euros
readiness
systematically
Fact
##igor
##add
##cliff
hating
rou
conservatives
Celtics
Judiciary
425
propagation
rebellious
magn
##lut
Dal
absor
##cloth
Boise
pairing
observ
torment
Hatch
aspirations
diaspora
##hame
Rank
237
Including
Mult
chained
toxicity
CM
##aroo
rant
ded
##bio
Editing
##_N
##them
##ahn
PARTIC
transcriber
evacuate
gem
gram
kidnap
pinning
##olan
##orms
beacon
organising
McGrath
ai
Qur
Tango
grammatical
^^^^^
##enix
##cie
##jas
cham
##ooked
Venture
creations
exhibiting
##inking
datatag
Butcher
Divinity
##ials
##enum__
falsely
perished
handy
Moines
cyclists
__enum__
Mortal
notoriety
replying
Dialogue
expressive
uk
Nightingale
##Res
het
Driving
relentless
compiler
IQ
glitch
Hades
medicines
objection
Answer
Soap
Chattanooga
Snapsh
Haryana
Parties
Turtle
specifying
explorers
stakeholders
BANNED
implic
tempered
conjecture
##tee
##hur
##dot
bumper
stew
##church
greed
##aping
naz
##elier
##enne
translucent
Spoil
Publisher
evangelical
inherit
evalu
247
SmackDown
bitterness
lesions
Desp
mosques
##_K
Dire
Ng
Rebels
booking
##nail
Incident
KNOW
##REAM
confirms
Chaplin
baths
hyph
Kinda
pulsing
##eremony
slaughtered
boasted
retarded
zipper
ot
aristocracy
halftime
jolt
unlawful
Marching
sustaining
gre
bracket
##tyles
Markus
discipl
butcher
massage
##quisite
##Voting
Pizza
collapsing
##78
commentaries
scripted
poly
##ancing
eroded
alleging
vase
vag
Peacock
commencement
dice
hotter
poisonous
executions
jun
frost
fielding
vendor
wid
Troops
##athers
Divisional
analogue
shadowy
##cers
##uming
radiating
worthless
##oca
##osexual
blaze
brutally
horizontally
##Am
Kh
federally
##unko
Root
exclude
rag
agitation
Lounge
astonished
##itting
Impossible
transformations
##inet
##!?
Cert
downloaded
##mph
Egyptians
Messages
##athread
U2
befriended
radios
##jid
archaic
compares
##One
##imated
notifications
Hung
Scientists
Thousands
geographically
##LR
##GR
fluorescent
##ipur
Wehrmacht
medioc
Ca
Chao
roast
##amsung
##grounds
chuck
##mento
##kee
infancy
("
510
Boca
gro
##ennis
##agic
dong
stresses
Sweat
##archy
graders
##ditionally
nets
Lawn
thirst
emphas
satisfactory
PARTICIP
tokens
rusty
##cest
Shen
stro
chickens
Ven
sel
##onnect
SAT
bearer
##ogo
##oseok
merits
Calendar
Highest
Skills
##ortex
##ATCH
paradigm
##isks
##liament
swamps
spoilers
##oker
balloons
Hawthorne
Muse
spurred
advisors
reclaimed
stimulate
fibre
##related
repeal
##amar
##iar
##_k
5k
descends
flinch
unus
##chang
Sha
horrif
commissioning
Ref
Conserv
stan
Wolff
##_1
Took
deliber
Nightmare
ZIP
playback
Ell
##vington
Warm
quot
Twitch
Rollins
Py
##Mess
sorting
🇺🇸
530
Joaquin
:](
thinner
##iator
##fc
Cebu
irrit
##oric
Vanguard
30am
PARTICIPATING
mu
##Bill
cartridges
repression
DI
311
Lauderdale
commodities
null
##rb
ie
gearbox
##reator
attrib
Forgotten
dubious
##aehyung
##oad
##stall
Groove
Herrera
##çais
Collections
Maximus
narc
Fell
GD
filtering
##west
Roe
hazards
##37
biz
shr
Feed
footer
##allas
mich
glands
##paper
##iche
##Wh
##Sports
rallies
Location
seduce
##mple
BYU
##itic
Kam
english
##Pl
songwriters
forefront
Physicians
##inho
##zee
##eness
R4R
UV
gems
Navarro
misses
theor
##ittee
resisting
##ohen
Hurt
##arms
galaxies
##leg
##iments
devote
##lamp
elev
baron
är
Stats
Ps
##YS
##ος
##icked
TELLS
schol
##missions
##thew
##sell
Skull
denies
236
##semb
##mah
Sakura
mole
nominate
sermons
##bering
communic
##allow
##osal
##struction
Nehru
Revelation
doom
Gala
baking
##rend
Yourself
banning
Individuals
Sykes
orchestrated
630
Phone
steered
620
##eeks
starvation
##AV
##alet
assass
seductive
estim
THANK
Tolkien
backst
Wizards
transcribed
dictator
Duo
grandma
approx
funn
##nc
shrink
##THING
treshold
249
----
outpost
Dri
AUTOMATED
##tl
Jana
caut
Gifs
finalized
humanities
##function
Honorable
tomato
##auc
Pie
tee
enth
##74
Ferris
MUTED
##pro
THRESH
Directory
anxiously
NPC
flanks
##Ds
virtues
THRESHOLD
Grades
criterion
manufactures
sourced
##urope
##dance
##entext
Ying
##BF
##sett
adequately
blacksmith
totaled
trapping
expanse
Historia
Worker
Sense
ascending
housekeeper
irl
Crafts
Resurrection
markdown
encryption
##aris
##vat
##pox
##Mar
##iability
enfor
spying
##ths
helmets
wired
GOOD
clarify
HU
downloads
stereotypes
239
##ooth
bleak
##igning
hauling
##haft
prohibit
så
##castle
arbit
##hta
congrat
antibodies
Agree
##IAL
Kurdistan
Minority
Gorge
Herr
appliances
disrupt
Drugs
Lazarus
##ilia
Hen
Bi
\#
GRE
Roxy
choreographed
##PH
turbulent
##listed
Anatomy
exiting
##det
Ign
580
##Life
sage
##94
tem
##rolls
Lvl
chop
RO
jerking
perpet
asterisks
M1
resurrected
trophies
MUCH
Gathering
ACTION
serpent
Dow
embr
##IES
arbitration
dys
bund
##bye
##zers
##Bron
ICO
''
memo
##atoes
##achment
Scotch
modelled
slashed
##imus
exceeds
##roper
##War
Laughing
vascular
superficial
##arians
Barclay
Caucasian
classmate
sibling
Kimberly
##HO
##ilde
##liche
Cheney
incons
"[
berries
##oshop
Bed
MI
Bol
##hz
broadband
##olia
##arte
##iw
darts
##immer
##uze
believers
ordinance
violate
##wheel
##ynth
Alongside
Coupe
Footer
extrem
earl
Bry
##ARS
##lihood
##ument
Ghosts
midfield
pulmonary
##eno
cues
##gol
MIL
322
Wtf
manufactur
##ointing
Kar
##orde
Walmart
hashtag
competence
GS
##rence
##urer
##ła
Alistair
##inion
appropriately
forge
##osterone
##ugen
DL
345
##onnell
inventions
##resses
##ITY
Fay
Integration
slash
##roats
Widow
barking
EN
1A
heck
##opath
Repost
unreliable
raz
##esign
##zens
##stop
Journalists
bony
##iba
DV
##stitution
horrific
##bish
Jocelyn
##==
##apon
##cier
trainers
##ulatory
##IB
##ensity
corpus
##\(
##bidden
Greentext
Elgin
##entry
Doherty
clockwise
##played
spins
##ample
##bley
Cope
constructions
seater
warlord
Voyager
documenting
fairies
UPD
eu
jewellery
suites
##gold
Maia
##through
(@
##kus
hyphens
ASAP
##abilities
MCC
Metropolis
Older
)**](
##fortunate
amplifier
supervising
Stri
buffalo
cushion
terminating
Massive
steak
Quickly
contracting
##raq
sarcastically
Elsa
##eday
bastards
narratives
Takes
304
composure
typing
variance
##ifice
Softball
##rations
##cé
BTC
shrines
agg
Overwatch
##ocur
moron
##98
Fleetwood
Woodland
##uxe
fictitious
shrugs
##Un
tex
conform
Fut
Launch
outl
exagger
Tad
override
##free
inherently
Chávez
messing
quartz
]**
##ου
##lynn
ushered
welf
##ailing
dictated
Pony
##opsis
precinct
802
Plastic
##hyun
##uno
twitch
Denton
Matters
SPD
##rition
##rogen
Essential
Deck
Dortmund
obscured
##lbs
headphones
##bred
##icky
##ropolis
saturated
##fiction
Ast
Pereira
Vinci
badass
warehouses
##ún
Mot
BO
sealing
##atively
executing
pendant
##wives
##ocus
##oko
##OUS
symmetrical
Susie
##mare
Yusuf
analogy
boldtext
Lesley
limitation
2k
##ío
disagreements
##ifi
embroidered
##onde
unarmed
Ble
Stores
dwell
facebook
creditors
brig
fel
##amia
directs
##abis
scouting
McGuire
cradle
BM
Sato
insulin
mercenary
tolerant
##td
transitions
stead
##berto
##ivism
DPS
##aku
##ountain
Reach
Simply
680
##bill
##oja
yall
prairie
##ogan
reactive
REAL
##thon
Cyclone
Sirius
Survival
TAKING
##coach
##iels
halves
Agatha
Opus
contrasts
##fuck
ominous
LMA
Baylor
##cif
duct
##aches
intercourse
transpar
Colbert
envy
##isi
unreal
geared
MTVBRKPOPBTS
accelerate
ak
Witness
nat
Angelina
Material
assertion
misconduct
Nix
cringed
tingling
##eti
marg
Everest
disturb
sturdy
##keepers
##gender
Profile
heavenly
##itals
4K
translating
##sses
316
Invitational
Mention
martyr
Nar
Barron
hardness
Nakamura
405
consult
reflections
##falls
Viet
##LT
Pyramid
##OTH
Shoot
Pelosi
linguist
##tower
MUST
superiors
##leo
Achilles
##Drive
Vik
Padma
precedence
grassy
Oral
resurrection
XD
clumsy
##Star
##rue
huts
##stars
Equal
##opp
Devin
Gaga
paycheck
TM
##upe
aesth
Patch
Scream
hail
moaning
##oked
archite
##eremy
outsider
##ergic
##oter
bum
##road
greenish
tilting
##️…
schedul
##opes
Et
Plat
instagram
billionaire
MT
321
##elp
transplant
blah
##fters
Corbin
autism
pitchers
Garner
Od
Scientology
transitioned
integrating
repetitive
sequ
Rene
vomit
##burne
advertise
Researchers
[/
insulted
wavy
een
tweeting
excitedly
##kor
sho
injustice
##achal
Aqu
nie
novella
##least
Liv
##enstein
##river
monstrous
topping
downfall
looming
sinks
trillion
##atically
Effect
HO
RandomA
Sites
Tru
##ilarly
Hopper
##raiser
unemploy
masculinity
lance
##chia
dé
NSA
branching
JB
tensor
Cow
drumming
feeder
delus
Dyer
homicide
bitcoin
fishes
protruding
##jud
Smash
Doing
inlet
keto
##finder
consens
Sul
||
Melinda
assigns
paranormal
gardening
Tau
calming
##igible
##crow
reprodu
Nik
Hann
correlated
##gene
##rieve
Sick
##minster
Sell
hardwood
hurled
##OOOOOOOO
OUR
rhyme
GC
Correct
debating
##itution
STOP
Trick
Tesla
defiance
mart
Ele
##Cabello
##nees
##uben
Saud
##_h
435
##⣿⣿
cinemas
##irc
commended
##ommon
##advice
##PER
ripe
scraping
##loc
va
Saddam
##Har
Faust
[*
vanilla
Throw
Kl
##ropic
Alfa
bliss
gangster
##anz
##93
blending
NSFW
RandomActs
bends
escorting
Chap
##quis
Exper
appar
havent
Ambulance
als
RandomActsOf
pero
unfolded
##missible
splendid
Cure
##Art
Dist
Waste
sha
Sav
##VS
john
eBay
Sus
rue
marital
versatile
unpaid
allotted
Turns
Shame
10k
reck
IDF
LeBron
govt
RPG
OW
dent
##07
##useum
mr
astronaut
attends
pollen
periphery
doctrines
Smo
showered
demograph
ham
Boo
suspend
244
Amar
Christensen
Ping
ms
Austen
raiding
realities
vel
urges
Altern
subscribe
##otype
Cascade
rhy
Pact
PG
##aran
##urion
Riot
mimic
Eastwood
##imating
reversal
##blast
##orship
Pitchfork
WANT
Staten
WCW
lieu
##bard
dm
experimenting
##anging
frankly
TNT
Hannibal
catastrophic
Sem
272
308
##brevi
##xtape
shill
aggregator
##ANG
Featured
Reece
dispatch
simulated
##BE
##Fl
salty
hardcover
inexpensive
doc
##adores
...?
kicker
blogs
frenzy
##wala
dealings
erase
Parkland
funder
pant
Marquette
##raphic
Fit
UPDATE
atrocities
concussion
##Now
tant
ethanol
ikke
Rooney
##chemist
pvp
blockchain
menacing
stim
;!
laborers
dodge
"...
erased
onstage
Uni
##arios
##tick
##cels
##yrinth
##atures
Wharton
Lev
GL
Testing
Bangladeshi
##oooooooo
##usions
communicated
integers
internship
societal
##🇺🇸
Loki
ET
manif
broadcasters
Unix
##auer
ster
Yamaha
queue
##zman
chilled
##rapped
WOW
Duval
sentiments
##nergy
packets
.](/
amaz
Harlan
Mirage
##inction
iT
##_n
flexed
sweetness
SSD
alleviate
insulting
limo
goog
##ASH
crappy
##eder
buys
furn
mocked
pursuits
refresh
##conscious
##ilian
Ballad
jackets
##kra
hilly
##inging
Os
##Mon
silhouette
whipping
##iefs
##wark
yr
lang
Lemon
calculus
demonic
ga
Discussion
Govt
ss
Trilogy
Ducks
Suit
2F
ENTIRETY
Isa
regulator
commenter
flatly
##buster
##Ob
Spartans
##roph
curs
usable
vert
Fa
INT
Pur
Digest
Whats
auf
##asters
Alvarez
DJs
Grimm
authoritative
firearm
##ohn
Origins
lair
##YT
4k
##cribing
Mouth
authent
VID
##gaon
##ulter
##HHHH
Neck
anec
##oing
##aimer
relativity
##mott
Ess
##esan
EXOVoting
carbs
salts
##roa
Dustin
preoccupied
hashtags
##asus
Magnum
tempting
enthusi
##96
Musa
##ghty
Ashland
pubs
routines
##etto
Bor
257
Featuring
##this
##alaya
##reedom
##agle
expects
##abby
##ooby
Auschwitz
##stalg
vodka
sinc
rescuing
systemic
OG
##inations
Yun
applicant
revered
Mas
##ndas
Muller
characterization
##patient
##roft
Carole
##bucks
Amiga
disconnected
gel
##itivity
Patriotic
rallied
##OPE
veterinary
installing
##ersion
258
Jang
synth
incarcerated
stalk
##atar
Jamal
FIN
##uthor
billions
exch
512
Rourke
irrational
##umn
##ooh
erratic
##NI
Anyways
BJP
engages
Portal
aesthetics
##earing
##Tw
assassins
##rots
335
385
genoc
Females
fellows
Stat
##block
dumbass
Jayne
Toro
flutter
cinem
Burr
##aza
relaxation
##fra
##Funko
##undy
##o_
261
##onge
conglomerate
ribbons
veto
##Es
casts
emb
##uum
Ares
spears
spirituality
comet
fetish
##ambling
distur
aquarium
yer
lou
overt
inapp
jp
remorse
auditions
drilled
Account
Moe
od
MAY
OriginalFunko
##race
LOOK
Bron
coordinating
obsc
##bul
##his
##Talk
Fix
##pack
Palest
goaltender
taxa
##asures
##HING
##mage
Infinite
Maid
bean
intriguing
##cription
gasps
socket
##mentary
##reus
sewing
transmitting
##Da
GF
shith
inject
sprawling
Shipyard
anth
##rett
acknowled
trolley
##agi
##lesh
tunn
invasions
Content
firefighters
##är
Lucifer
##We
##joon
Myrtle
inhibitor
maneuvers
aver
Wrath
slippery
McConnell
Shoes
##iju
MK
##instein
’.
incompet
Ru
##ounty
##stones
Fusion
cumulative
brag
##onymous
##Billboard
##utz
foe
storing
swiped
##meister
##orra
Totes
strung
Yay
##kker
Doo
Taste
immensely
Bitch
Jarrett
Boogie
mediocre
mage
Kick
legislators
medial
##ilon
##αι
##ranton
Hybrid
##uters
Tide
deportation
messaging
colle
100k
UFO
##fell
FY
##raction
(?
ancest
fabricated
##BM
URL
##KK
muttering
theorist
##iblings
##olesome
aqu
solvent
##azed
Thin
societ
Wendell
:-)
3x
pulses
##ellow
counters
exposition
sewer
Prin
Clancy
##angelo
##ootball
Showtime
observes
cust
##oppy
##All
lobes
timetable
##bri
##uest
FX
##dust
##App
skept
Chall
Meridian
congrats
Ow
##inance
miracles
Subreddit
PP
bluff
syrup
307
Messiah
##erne
interfering
american
unconventional
dipping
contacting
##aska
248
Ethnic
Adv
acidic
nope
subt
intimidating
##aal
Jed
Pontiac
munitions
##ilpa
growling
\&
##rassenstein
##Pal
restart
aerospace
caucus
##_twt
##around
bol
LM
##****
JO
Alab
evaluating
##Messenger
Belinda
owes
##esty
avo
Pok
economists
##lishing
bs
##ân
credible
insecure
och
cones
neur
bookstore
towels
##[^(
Appearance
empathy
##olin
Karin
**|**
##elves
##oenix
306
disks
tang
##0000
Levant
;**
##No
snuck
##WAYS
sed
Exploration
drastic
##kening
queries
endowment
Serv
Blaze
abst
leaking
45th
Inv
##111
760
Shapiro
cakes
TotesMessenger
hors
##ité
##atted
repetition
##thur
Friendly
coordin
Koreans
Au
Fil
flourish
Spirits
Yao
reasoned
##edge
Wal
cater
gest
ordeal
supremacy
krassenstein
Paisley
euro
healer
##Blow
Kr
clarification
0d
Download
Ich
##Script
emptiness
communion
##CF
1k
##IRC
ov
insanely
HAPPY
##So
395
Dual
Terrorism
##urge
##found
##atics
Courage
patriarch
segregated
intrinsic
republicans
##phe
##85
convection
sexist
Dharma
Jimmie
texted
constituents
##lr
stub
BACK
*"
415
milling
##UMP
##alend
perks
evergreen
needy
reflex
template
##acked
dps
Creator
PRE
Camil
SJW
Sar
Joanne
clearer
Harden
278
Print
automation
consciously
flashback
occupations
##col
tits
differentiated
policing
repay
##bour
Epis
WAY
commotion
##CM
craw
Clapton
UI
Kobe
nit
Ignoring
cunt
Wet
bandage
##Ann
overd
Maris
##eted
##emo
figuring
##ml
##nap
leopard
strategically
##reer
Fen
Iain
##Nation
##pipe
##RR
McIntyre
BY
##healthy
Romani
escal
flopped
reassure
Founding
Styles
[...]
